<unk>	0
<s>	0
</s>	0
<eos>	0
<sent-sep>	0
<doc-sep>	0
<pad>	0
_	-1.72653
▁,	-3.34261
▁.	-3.80532
▁và	-4.71046
▁của	-4.72394
▁có	-4.90675
▁các	-5.04403
▁là	-5.07294
▁trong	-5.11862
▁được	-5.2129
▁cho	-5.23286
▁đã	-5.23974
▁một	-5.27713
▁không	-5.32225
▁với	-5.33652
▁người	-5.37647
▁những	-5.52698
▁	-5.5743
▁)	-5.62935
▁(	-5.62949
▁để	-5.72149
▁công	-5.73193
▁khi	-5.77133
▁này	-5.79168
▁ở	-5.83271
▁đến	-5.86416
▁về	-5.87036
▁năm	-5.91018
▁tại	-5.93511
▁cũng	-5.93722
▁"	-5.95415
▁từ	-5.96475
▁vào	-5.97544
▁-	-5.97913
▁ra	-5.97986
▁trên	-5.99819
▁nhiều	-6.00717
▁:	-6.00736
▁đó	-6.01227
▁sẽ	-6.03059
▁nhà	-6.06006
▁ngày	-6.10725
▁như	-6.1211
▁làm	-6.1778
thể	-6.18243
▁ông	-6.21747
▁phải	-6.21804
▁đồng	-6.21849
▁theo	-6.22297
▁bị	-6.30801
▁nhưng	-6.31428
▁sau	-6.31484
▁lại	-6.32533
động	-6.32791
▁sự	-6.37275
▁chỉ	-6.39475
định	-6.39725
▁chính	-6.40045
▁anh	-6.40969
▁hơn	-6.41078
▁việc	-6.41243
▁còn	-6.41521
▁đầu	-6.4224
▁việt	-6.46932
▁nước	-6.47333
▁đang	-6.49501
.	-6.50889
▁trước	-6.51236
▁điều	-6.51287
nam	-6.51307
▁thì	-6.53949
▁tôi	-6.55071
▁biết	-6.55834
▁thành	-6.56082
▁mới	-6.58311
hiện	-6.58647
▁đi	-6.58902
▁rất	-6.61204
▁mà	-6.63369
▁cơ	-6.63617
▁bộ	-6.64082
▁thực	-6.64428
▁nhất	-6.64622
▁phát	-6.64625
▁con	-6.65942
▁trung	-6.69009
▁thời	-6.6945
viên	-6.69521
▁mình	-6.72638
▁chủ	-6.73303
▁đối	-6.73678
▁lên	-6.75856
▁cao	-6.75962
tế	-6.76463
-	-6.78049
▁hai	-6.79125
dụng	-6.79245
▁vì	-6.80423
▁vẫn	-6.80904
▁hiện	-6.816
▁hàng	-6.81816
▁2	-6.81869
nhân	-6.82593
▁;	-6.82834
▁cùng	-6.82887
▁bạn	-6.82913
▁đây	-6.8519
▁tới	-6.85211
số	-6.85307
▁giải	-6.86029
gia	-6.87383
nghiệp	-6.87425
▁tăng	-6.8803
▁do	-6.88502
▁số	-6.88995
trường	-6.8931
▁xe	-6.90118
▁thông	-6.90676
lý	-6.90782
▁qua	-6.91258
▁nên	-6.91309
▁kinh	-6.92026
▁thế	-6.92163
▁giá	-6.92421
▁cuộc	-6.93157
▁dự	-6.93456
quan	-6.93811
chức	-6.94053
▁tháng	-6.94539
▁đường	-6.96058
▁nói	-6.96203
▁quốc	-6.96245
trình	-6.96523
dân	-6.96732
▁tiền	-6.97963
▁khác	-6.98669
lượng	-6.98795
▁1	-7.00813
▁cả	-7.01494
▁tình	-7.01625
hội	-7.02701
▁hà	-7.02962
▁cô	-7.03532
▁quan	-7.04017
hợp	-7.04263
▁liên	-7.0474
▁tiếp	-7.04964
▁tổ	-7.05041
quốc	-7.05275
▁đại	-7.05575
▁rằng	-7.05803
▁chưa	-7.06259
▁3	-7.07792
▁chúng	-7.08362
▁họ	-7.08673
▁cần	-7.10168
nhiên	-7.10178
▁lần	-7.105
▁tổng	-7.11115
▁học	-7.11577
▁nguyễn	-7.11716
▁trường	-7.11802
▁tỉnh	-7.13376
▁khu	-7.14716
▁thi	-7.15941
▁xã	-7.16253
thành	-7.16442
▁lớn	-7.16887
▁triệu	-7.17323
▁mỹ	-7.17349
hàng	-7.17469
năng	-7.17577
▁sản	-7.17808
▁/	-7.17873
tư	-7.18073
▁gia	-7.18352
▁thấy	-7.19037
sinh	-7.19246
án	-7.19277
▁ảnh	-7.2021
công	-7.20544
▁nếu	-7.2186
▁tài	-7.22075
vụ	-7.22105
▁nhân	-7.22732
▁nhận	-7.22967
học	-7.23227
gian	-7.23262
hình	-7.23378
ty	-7.23856
▁kết	-7.2435
▁thu	-7.24617
▁bảo	-7.24745
tác	-7.2523
hành	-7.2585
▁giao	-7.26344
tục	-7.26772
đầu	-7.26867
▁thứ	-7.27506
▁đưa	-7.27517
▁đội	-7.27906
▁tham	-7.2824
▁bà	-7.28724
▁gần	-7.28874
▁quá	-7.28935
▁thị	-7.29011
▁vừa	-7.29416
▁bằng	-7.29945
▁trở	-7.30002
▁tuy	-7.30467
▁diễn	-7.31124
việc	-7.31703
an	-7.32655
vực	-7.32745
▁vụ	-7.33068
▁tỷ	-7.33176
▁cách	-7.33716
nội	-7.33804
tâm	-7.33892
▁địa	-7.34049
bộ	-7.34229
▁quy	-7.34455
▁bên	-7.34573
tra	-7.34945
▁hay	-7.34946
▁thủ	-7.35587
độ	-7.36163
▁bán	-7.36474
▁xây	-7.36735
▁tuổi	-7.36817
▁nay	-7.3697
hoá	-7.37415
chí	-7.37551
▁bất	-7.37819
▁tự	-7.37951
▁bệnh	-7.38096
▁thanh	-7.38181
thống	-7.38633
▁tp	-7.38801
đình	-7.39023
▁ngoài	-7.39639
▁báo	-7.39762
sĩ	-7.39849
▁hội	-7.40091
trọng	-7.40135
phẩm	-7.40512
▁xuất	-7.40673
▁hành	-7.40688
▁chiến	-7.40752
lực	-7.41001
▁em	-7.41024
quả	-7.41333
▁điện	-7.4153
▁hình	-7.41739
▁tập	-7.41894
▁khoảng	-7.42034
▁khó	-7.42584
▁doanh	-7.43225
thức	-7.43247
giới	-7.43417
dựng	-7.43473
điểm	-7.43659
đạo	-7.43794
triển	-7.43816
tin	-7.43851
▁đều	-7.44236
giá	-7.44546
▁sử	-7.44781
▁...	-7.44863
▁chiếc	-7.45095
▁yêu	-7.45181
▁mức	-7.45217
▁bắt	-7.45781
▁đánh	-7.46102
▁dân	-7.46223
▁điểm	-7.46253
▁?	-7.4643
trị	-7.46725
▁hoàn	-7.46764
▁tin	-7.46776
▁trẻ	-7.47063
▁hoạt	-7.47093
▁bình	-7.47321
▁giảm	-7.47604
▁mua	-7.47636
▁đặc	-7.47813
▁khiến	-7.47898
▁đất	-7.47954
▁văn	-7.47996
văn	-7.48289
cầu	-7.48655
▁tốt	-7.48948
bản	-7.49028
tiên	-7.49525
▁chị	-7.4989
▁sáng	-7.49893
xuất	-7.49943
▁cổ	-7.50071
▁nào	-7.50297
▁4	-7.50355
thị	-7.50531
▁thêm	-7.51002
▁sinh	-7.51139
▁trận	-7.52735
minh	-7.52877
nhận	-7.53206
▁tìm	-7.53267
biệt	-7.53879
▁máy	-7.53949
▁phòng	-7.54497
▁đơn	-7.54549
▁phần	-7.5474
▁huyện	-7.54924
tượng	-7.55089
▁5	-7.55259
n	-7.55703
▁an	-7.5583
▁nhau	-7.55988
▁bóng	-7.56336
▁ban	-7.56581
▁gây	-7.56767
▁gì	-7.56771
▁khách	-7.56844
▁lúc	-7.57129
▁giữa	-7.58197
▁giúp	-7.58245
▁cấp	-7.58932
▁mang	-7.59307
thủ	-7.59589
đồng	-7.60009
▁ngay	-7.60083
sự	-7.60194
sản	-7.60246
▁tên	-7.60278
▁cầu	-7.60281
▁thường	-7.60652
▁từng	-7.61446
▁hợp	-7.62167
với	-7.62817
pháp	-7.62906
▁tính	-7.63054
▁toàn	-7.64363
▁kiểm	-7.64403
▁quyết	-7.64734
đề	-7.64778
thế	-7.64799
▁đề	-7.65284
▁ăn	-7.65529
tôi	-7.66259
nước	-7.66312
trưởng	-7.67287
▁loại	-7.67349
thông	-7.6745
▁rồi	-7.68206
nay	-7.68492
▁chất	-7.68651
▁mặt	-7.69055
▁mỗi	-7.69514
▁trang	-7.69635
sát	-7.71176
▁hoặc	-7.71424
▁ca	-7.71594
phố	-7.71708
phương	-7.71904
▁ý	-7.71998
cáo	-7.72142
▁tạo	-7.7219
bị	-7.72288
▁chương	-7.72539
▁giờ	-7.72973
▁chuyên	-7.72984
▁thương	-7.7304
▁bởi	-7.73237
▁tiêu	-7.7401
▁so	-7.74033
▁chi	-7.7408
vậy	-7.74303
▁đạt	-7.74334
▁phương	-7.74648
báo	-7.74665
▁cá	-7.75024
đổi	-7.75026
▁bản	-7.75036
▁cái	-7.75057
mặt	-7.75525
qua	-7.75575
cấp	-7.75586
▁cuối	-7.75607
▁mọi	-7.7574
toàn	-7.75926
▁thay	-7.76137
vị	-7.76241
▁phụ	-7.76278
▁nam	-7.76343
▁10	-7.7636
vệ	-7.76548
▁dùng	-7.7708
▁sân	-7.7776
▁xem	-7.78649
▁nguyên	-7.78686
▁tiến	-7.79176
▁muốn	-7.79357
trợ	-7.8
bình	-7.80119
▁quản	-7.80163
▁đông	-7.80568
▁cảnh	-7.80667
▁đấu	-7.8081
▁vốn	-7.80899
▁nội	-7.81372
▁bao	-7.81549
▁nơi	-7.8158
▁hồ	-7.81625
nghị	-7.81742
▁ngân	-7.81808
▁thiết	-7.81856
tích	-7.82298
kiến	-7.82639
▁vấn	-7.82689
▁hệ	-7.82896
sách	-7.83553
▁tàu	-7.83844
▁sở	-7.84011
chính	-7.84119
trí	-7.84312
▁gặp	-7.84723
tịch	-7.84785
sở	-7.84805
▁nguồn	-7.85016
▁6	-7.85183
kết	-7.85435
thuật	-7.86039
▁usd	-7.86136
▁cảm	-7.86297
▁vùng	-7.86468
ảnh	-7.86478
▁rõ	-7.86855
▁mạnh	-7.87052
▁mất	-7.87235
hoạch	-7.87401
▁ba	-7.87437
▁phim	-7.87498
phủ	-7.88102
cách	-7.88135
▁thể	-7.88297
▁quân	-7.89412
▁ấy	-7.89657
▁ngành	-7.89677
▁chuyển	-7.89679
▁pháp	-7.90263
kiện	-7.9029
▁tay	-7.9042
▁sức	-7.90528
▁chung	-7.90684
▁nó	-7.90825
thương	-7.91049
▁khả	-7.91923
▁chia	-7.92121
thời	-7.92282
phạm	-7.9261
hiệu	-7.92878
▁ta	-7.93008
▁phía	-7.93158
▁hết	-7.93262
▁luôn	-7.9342
bố	-7.93587
▁vị	-7.93591
cả	-7.93843
▁vàng	-7.94205
▁biển	-7.94428
▁nhỏ	-7.94553
▁khá	-7.94693
▁giám	-7.94766
▁ai	-7.95089
▁mẹ	-7.95259
▁tương	-7.95407
▁truyền	-7.95419
▁hôm	-7.95587
ý	-7.95789
▁vô	-7.95861
cứu	-7.96113
▁vòng	-7.96475
▁bàn	-7.96668
▁nổi	-7.97156
▁lời	-7.97315
▁hiệu	-7.9737
▁hải	-7.97433
▁vợ	-7.97478
chế	-7.97591
▁tư	-7.98125
▁thuộc	-7.9817
▁mùa	-7.98273
trung	-7.98527
▁mở	-7.98903
▁du	-7.98939
▁hoa	-7.98961
▁sống	-7.99049
phòng	-7.9924
quyền	-7.99334
lập	-7.99645
▁xuống	-7.99681
▁lực	-7.9991
quyết	-8.00039
tạo	-8.00088
▁ít	-8.00177
▁trả	-8.00424
▁tuần	-8.00494
▁bài	-8.00528
lại	-8.00753
▁nhóm	-8.01442
▁sang	-8.01656
▁đúng	-8.01816
▁xử	-8.01909
▁tất	-8.01995
▁bỏ	-8.02077
▁xảy	-8.02442
liệu	-8.02472
▁đẹp	-8.03794
▁phó	-8.04381
phần	-8.04544
▁gái	-8.04595
▁chứng	-8.04656
▁quảng	-8.04701
diện	-8.04746
sống	-8.0478
h	-8.04878
▁kể	-8.04887
chỉ	-8.04944
▁đoàn	-8.05373
▁lấy	-8.05389
▁nhằm	-8.05509
▁cạnh	-8.05632
▁dù	-8.05943
ra	-8.05947
▁khai	-8.06063
▁phân	-8.0619
khai	-8.06311
▁dịch	-8.06331
▁nông	-8.06361
viện	-8.0643
▁câu	-8.06616
▁'	-8.06654
▁giữ	-8.0676
▁giáo	-8.06887
hệ	-8.07258
▁chiều	-8.07445
▁ngoại	-8.07474
▁7	-8.07481
▁tác	-8.07622
doanh	-8.07635
▁kế	-8.07663
khăn	-8.07762
▁hỗ	-8.0807
▁kỳ	-8.08788
nhiệm	-8.08936
▁giới	-8.09155
▁nghệ	-8.09206
▁trần	-8.09372
▁vận	-8.09631
kỳ	-8.09716
mạnh	-8.09817
▁triển	-8.09937
▁châu	-8.10233
▁lao	-8.10518
▁tấn	-8.1055
▁phiên	-8.10794
tính	-8.10864
▁dẫn	-8.11884
▁s	-8.11967
▁nhanh	-8.12042
▁lợi	-8.1226
▁đóng	-8.1259
giả	-8.12716
▁nữ	-8.12816
▁dưới	-8.12982
▁hướng	-8.12988
phục	-8.13316
▁trái	-8.13336
▁đáng	-8.13405
▁8	-8.13555
▁xác	-8.13871
▁lãnh	-8.14078
▁quận	-8.1412
▁nhìn	-8.14187
trạng	-8.14519
▁m	-8.14534
nghệ	-8.14699
dịch	-8.14771
▁tâm	-8.14879
▁y	-8.1502
▁hoàng	-8.1508
tướng	-8.15189
ứng	-8.15524
▁tối	-8.15632
▁phong	-8.1567
quân	-8.15704
đốc	-8.16489
▁thái	-8.16624
▁thiếu	-8.1682
▁chân	-8.17362
▁đặt	-8.17492
▁bé	-8.17612
▁bước	-8.17807
luận	-8.18284
▁lê	-8.18349
tiếp	-8.18538
▁lý	-8.18929
phí	-8.18996
đoàn	-8.19002
▁chuyện	-8.19166
▁nga	-8.19633
▁bắc	-8.1977
nghiệm	-8.20558
vọng	-8.20634
khẩu	-8.20922
▁luật	-8.21146
▁cây	-8.21402
▁nữa	-8.21678
đấu	-8.21726
▁đảng	-8.21796
▁thật	-8.21825
▁ghi	-8.22174
▁tuyên	-8.22272
▁đủ	-8.22354
▁danh	-8.22484
thân	-8.22539
▁di	-8.22705
▁phạm	-8.22805
▁mục	-8.22828
▁nhật	-8.23022
▁màu	-8.23027
▁tiếng	-8.2319
▁vũ	-8.23322
ta	-8.23323
cùng	-8.23358
máy	-8.23933
▁động	-8.24096
▁ubnd	-8.24168
▁đầy	-8.24257
▁đăng	-8.24318
▁kỹ	-8.24366
tiêu	-8.24367
bay	-8.24532
▁trưởng	-8.2475
ninh	-8.24924
nhất	-8.25654
▁tây	-8.25915
thường	-8.26173
▁chơi	-8.2621
▁dễ	-8.26257
▁trực	-8.26467
▁cán	-8.26475
▁cung	-8.26533
▁quyền	-8.2658
lịch	-8.27049
▁phút	-8.27147
▁đôi	-8.27181
dục	-8.27414
▁chạy	-8.27528
em	-8.2766
▁riêng	-8.27667
▁nâng	-8.27676
▁cụ	-8.27678
▁mặc	-8.27682
▁buổi	-8.28702
▁ngôi	-8.28962
▁lễ	-8.291
anh	-8.29396
▁9	-8.29432
vi	-8.29528
thoại	-8.29579
bảo	-8.29807
tiếng	-8.29833
thanh	-8.29845
▁đêm	-8.3004
▁chống	-8.30129
▁thắng	-8.30204
▁căn	-8.30536
diễn	-8.30581
▁phản	-8.30583
sẻ	-8.30812
▁chết	-8.30965
▁dài	-8.31262
luật	-8.31405
▁sao	-8.31493
hữu	-8.31845
trang	-8.32162
sắc	-8.32226
▁môi	-8.32226
▁nằm	-8.32278
biến	-8.32566
▁hoà	-8.32609
▁dành	-8.32976
biểu	-8.33279
▁áp	-8.33348
▁khẳng	-8.33594
nữ	-8.33687
▁vi	-8.33694
▁20	-8.33719
▁bác	-8.34148
▁chồng	-8.34258
▁đào	-8.34573
bàn	-8.34583
▁thuốc	-8.34652
giờ	-8.34739
hưởng	-8.34778
▁đứng	-8.34817
đây	-8.35319
đội	-8.35336
lệ	-8.35688
ng	-8.35921
cơ	-8.36005
nhập	-8.36278
▁lưu	-8.36313
▁thích	-8.36345
▁chuẩn	-8.36525
hộ	-8.36605
▁cửa	-8.36631
lan	-8.3675
cảm	-8.37013
▁gọi	-8.37463
do	-8.37508
sao	-8.37778
▁mạng	-8.37862
tình	-8.3802
▁vai	-8.38409
▁nạn	-8.38721
▁đảm	-8.38815
tại	-8.39007
▁chú	-8.39135
nào	-8.39216
tử	-8.3923
▁trình	-8.39579
▁độ	-8.40065
mắt	-8.40082
▁trao	-8.40129
phiếu	-8.40203
▁nghiên	-8.40421
dung	-8.41011
▁hcm	-8.41148
▁khỏi	-8.41451
▁chọn	-8.41765
▁vượt	-8.41778
▁lo	-8.42165
vật	-8.4225
sơn	-8.42677
m	-8.42868
khí	-8.4308
▁hỏi	-8.43349
▁cộng	-8.43387
thu	-8.43553
▁nguy	-8.43646
▁biểu	-8.43835
▁nền	-8.43914
dương	-8.44377
niên	-8.44552
▁tinh	-8.44682
thắng	-8.44711
▁ấn	-8.44721
▁chẳng	-8.44773
▁t	-8.44809
▁gửi	-8.45187
hạn	-8.45265
▁hlv	-8.45279
▁phục	-8.45747
▁biên	-8.4581
▁đàn	-8.45852
▁tranh	-8.46259
▁nghe	-8.4626
tranh	-8.46623
▁minh	-8.46655
▁chế	-8.46712
t	-8.46717
đại	-8.46794
cường	-8.46979
▁hộ	-8.4703
▁12	-8.47127
tay	-8.47397
▁cố	-8.47413
kế	-8.47711
▁hồi	-8.47718
▁ứng	-8.47744
▁thấp	-8.47796
▁da	-8.47828
▁độc	-8.47991
là	-8.48125
▁nhạc	-8.48169
▁vui	-8.48232
ban	-8.48554
▁nhiệm	-8.48706
▁lượng	-8.48861
dẫn	-8.48906
tập	-8.49098
thiện	-8.49157
phép	-8.49526
khách	-8.49702
trò	-8.49709
▁nặng	-8.49725
▁xa	-8.49923
▁hãng	-8.50197
▁năng	-8.50227
cảnh	-8.50269
tải	-8.50916
▁vậy	-8.51082
▁nhập	-8.51175
ngoài	-8.51229
suất	-8.51378
▁xin	-8.5149
s	-8.51613
ngờ	-8.51651
hoà	-8.51844
▁đức	-8.52062
▁khán	-8.5213
▁dòng	-8.52413
tố	-8.52563
ký	-8.52584
▁a	-8.52713
lợi	-8.52822
▁tội	-8.53027
▁duy	-8.53216
▁thân	-8.53217
đức	-8.53305
thiết	-8.53732
▁tiết	-8.53784
▁bố	-8.54241
như	-8.54452
▁áo	-8.54608
▁lớp	-8.54705
▁hàn	-8.54829
▁nghĩ	-8.54935
▁phối	-8.54965
chất	-8.5497
▁kim	-8.54982
▁đà	-8.5507
▁30	-8.55151
▁án	-8.55659
▁thuế	-8.55727
▁thí	-8.55786
▁u	-8.55855
mại	-8.55884
▁góp	-8.55933
▁trách	-8.55942
▁đa	-8.56199
a	-8.56268
▁tích	-8.56352
▁lập	-8.56913
▁cháu	-8.57095
▁sông	-8.57118
▁hiểu	-8.57359
▁chức	-8.57393
▁đá	-8.57579
▁mong	-8.57956
▁diện	-8.58017
▁bức	-8.58033
▁dn	-8.58033
▁phường	-8.58075
▁lâu	-8.58173
thư	-8.58195
▁thuỷ	-8.58214
▁chịu	-8.58358
chọn	-8.585
▁sớm	-8.58735
hiểm	-8.58745
▁song	-8.58867
▁hạ	-8.5891
▁cải	-8.59093
▁hát	-8.59106
▁khoa	-8.59121
▁đời	-8.59254
▁nghiêm	-8.59312
▁âm	-8.59384
▁chắc	-8.59517
▁giống	-8.59738
▁trai	-8.59995
▁kéo	-8.60019
▁lĩnh	-8.60079
▁bảng	-8.60218
▁mẫu	-8.6024
chuyện	-8.60287
▁miền	-8.60421
▁lịch	-8.60562
▁nhờ	-8.60719
đoạn	-8.60923
▁2012	-8.61295
▁thậm	-8.61298
▁quý	-8.61303
▁giấy	-8.61358
vấn	-8.61415
▁phù	-8.61442
▁tuyến	-8.61489
▁màn	-8.61695
dù	-8.61779
▁đồ	-8.62146
tự	-8.62195
▁định	-8.62285
toán	-8.62901
▁hậu	-8.63366
▁kỷ	-8.63466
phát	-8.63622
▁khởi	-8.63643
▁giành	-8.6398
thần	-8.64135
▁tai	-8.64224
thuận	-8.64322
tiết	-8.64355
lộ	-8.64933
soát	-8.65029
▁ký	-8.65084
▁15	-8.65267
cực	-8.65392
▁càng	-8.65602
long	-8.65648
g	-8.65652
hại	-8.6569
▁kiến	-8.65784
nguyên	-8.65812
▁vài	-8.65815
nghĩa	-8.66032
▁11	-8.6638
▁vật	-8.67221
▁uỷ	-8.67362
▁siêu	-8.67522
▁lòng	-8.67898
▁chiếm	-8.67912
▁tỉ	-8.68037
▁viết	-8.68077
huy	-8.68117
▁nghề	-8.68686
▁toà	-8.68704
▁họp	-8.68773
▁biến	-8.68962
▁tân	-8.68991
▁trọng	-8.69009
▁yếu	-8.69118
▁cục	-8.69257
▁đau	-8.69399
▁cứ	-8.69711
phúc	-8.69846
▁đâu	-8.69885
cứ	-8.70099
▁gồm	-8.70219
2	-8.70379
▁sâu	-8.70533
▁vay	-8.70554
giang	-8.70769
▁quay	-8.70904
thảo	-8.70916
tài	-8.71145
tưởng	-8.71178
▁ô	-8.71383
quang	-8.71453
dài	-8.71505
▁nhu	-8.71619
▁chuyến	-8.71673
▁h	-8.71752
▁giai	-8.72093
▁quả	-8.72158
▁lương	-8.72228
ngọc	-8.7238
▁cứu	-8.72488
▁thống	-8.72742
▁dầu	-8.73238
▁khối	-8.73302
đông	-8.73541
hậu	-8.73677
▁thử	-8.7383
hải	-8.73901
▁thăm	-8.73977
yếu	-8.74187
▁tuyển	-8.74416
▁thất	-8.74596
trì	-8.74597
giao	-8.74605
đời	-8.74639
▁hiệp	-8.74718
▁khoản	-8.75148
▁tạm	-8.75279
▁nợ	-8.75408
▁mắt	-8.75508
▁chứ	-8.75858
▁hạn	-8.76231
▁2013	-8.76582
yêu	-8.76627
tiến	-8.76915
▁sai	-8.76981
xuyên	-8.77064
xúc	-8.77369
▁rộng	-8.77458
sỹ	-8.77475
▁bầu	-8.77729
▁làng	-8.77859
▁viện	-8.77903
nên	-8.78127
thực	-8.78409
điện	-8.78486
▁tín	-8.78508
▁c	-8.78571
▁nghị	-8.78608
chứng	-8.78724
tộc	-8.78803
▁chăm	-8.78861
chuyển	-8.79113
hoàng	-8.79165
xét	-8.79517
▁tết	-8.79597
lời	-8.79678
giáo	-8.79737
▁phóng	-8.80067
▁mưa	-8.80129
nạn	-8.80225
▁tái	-8.80352
truyền	-8.80427
▁đô	-8.80622
sử	-8.80699
▁ma	-8.80977
con	-8.81055
▁bổ	-8.81139
▁ngồi	-8.81296
▁hãy	-8.81468
▁ưu	-8.8152
▁hồng	-8.81638
lai	-8.81793
dự	-8.82125
▁tử	-8.82279
đá	-8.823
▁thiên	-8.82975
▁thầy	-8.83013
ông	-8.83131
khoa	-8.83168
▁quần	-8.83322
chiến	-8.83343
▁nuôi	-8.83458
▁thuê	-8.83515
âu	-8.83694
bằng	-8.83717
▁mối	-8.83744
thái	-8.8388
▁khủng	-8.83953
niệm	-8.84046
mạng	-8.84088
▁ổn	-8.84111
tiện	-8.84248
sức	-8.84598
▁đạo	-8.84785
▁chờ	-8.84802
hướng	-8.84815
▁tránh	-8.84992
xuân	-8.85033
▁bí	-8.85064
▁quê	-8.8545
▁mô	-8.8548
▁hy	-8.85814
▁đẩy	-8.85845
ương	-8.86008
▁vn	-8.86195
▁nghỉ	-8.86629
▁cha	-8.87004
▁2010	-8.87216
▁lựa	-8.87339
▁đảo	-8.87384
▁may	-8.87669
▁nhớ	-8.87683
▁2011	-8.87748
▁lãi	-8.88421
sư	-8.88588
▁xanh	-8.88861
đảo	-8.88981
▁xét	-8.89215
▁thiệt	-8.89243
người	-8.89399
đô	-8.89473
▁món	-8.89597
▁hạt	-8.89735
▁đáp	-8.89799
▁nghĩa	-8.90245
vn	-8.90462
kiếm	-8.90497
▁mấy	-8.905
▁coi	-8.90612
▁biện	-8.90654
cư	-8.90831
▁chấp	-8.90962
giữ	-8.91051
càng	-8.91316
▁suy	-8.91504
hút	-8.9174
khoẻ	-8.91905
▁chỗ	-8.9203
▁nhẹ	-8.92358
▁suốt	-8.92628
▁100	-8.92685
▁kịp	-8.92729
▁hoá	-8.92807
á	-8.92889
cử	-8.93102
đối	-8.93105
▁dấu	-8.93166
▁cũ	-8.93173
▁cân	-8.93256
cao	-8.93494
▁thừa	-8.9361
▁nghi	-8.93664
môn	-8.93813
hồi	-8.93825
▁nghèo	-8.9405
▁trắng	-8.94069
▁phá	-8.94121
▁đổ	-8.94396
hùng	-8.94407
chỉnh	-8.94649
▁tiểu	-8.94702
▁rừng	-8.9473
▁hầu	-8.94813
thác	-8.94843
▁khám	-8.95146
▁sắp	-8.95174
▁phú	-8.95317
▁the	-8.95946
đẹp	-8.95958
hà	-8.96109
▁bay	-8.96259
▁huy	-8.96395
▁cầm	-8.96442
lẽ	-8.9646
▁nóng	-8.967
▁mã	-8.96709
▁niềm	-8.96807
thúc	-8.96997
▁tận	-8.97249
lửa	-8.9741
▁chợ	-8.97745
ăn	-8.97769
i	-8.97795
▁cậu	-8.98263
league	-8.98265
▁đứa	-8.98328
lược	-8.98406
▁2014	-8.98551
▁b	-8.9867
y	-8.98997
sơ	-8.99427
▁18	-8.99835
hết	-8.99971
▁sơ	-9.00035
▁đỏ	-9.00038
▁nhấn	-9.00087
▁sách	-9.00089
thích	-9.00152
▁ngọc	-9.00169
▁đổi	-9.00411
▁uống	-9.00508
▁đoạn	-9.00518
▁nhiệt	-9.00651
▁quỹ	-9.00688
nhạc	-9.00699
mẹ	-9.0083
bán	-9.0099
▁sơn	-9.01182
▁hạnh	-9.01255
▁16	-9.01355
▁quán	-9.01567
▁tặng	-9.01809
chồng	-9.01926
uỷ	-9.01933
chắn	-9.01991
luyện	-9.02031
rộng	-9.02178
▁kẻ	-9.02275
▁yên	-9.02321
▁kiểu	-9.02448
▁gắn	-9.03024
giác	-9.03128
▁mời	-9.03203
▁thôi	-9.03206
▁bánh	-9.0327
▁tầm	-9.03343
cố	-9.03461
▁cặp	-9.03581
lớn	-9.03618
▁dư	-9.04021
▁thoả	-9.04273
thiệu	-9.04283
▁to	-9.04514
u	-9.04665
▁tuyệt	-9.04677
▁xung	-9.04793
▁thẩm	-9.04914
▁ủng	-9.04917
▁đón	-9.05092
lòng	-9.05106
▁đh	-9.05188
▁xuân	-9.05296
▁chặt	-9.05342
ích	-9.05395
▁n	-9.0546
danh	-9.05477
▁chụp	-9.05515
hồ	-9.05525
▁truy	-9.05745
tô	-9.06028
▁cắt	-9.0611
xử	-9.06145
▁sửa	-9.06266
▁sn	-9.06333
▁khí	-9.06356
hương	-9.06599
▁dương	-9.06696
chóng	-9.06709
tức	-9.06764
▁nỗ	-9.0683
▁triều	-9.07159
địch	-9.07245
▁tốc	-9.07358
linh	-9.07404
▁cánh	-9.07532
▁sát	-9.07557
xã	-9.07687
▁thua	-9.08061
▁hương	-9.08153
dùng	-9.08187
▁pha	-9.08197
▁xấu	-9.08235
▁cà	-9.08803
▁long	-9.08887
▁máu	-9.08988
▁cháy	-9.09012
đất	-9.09058
chơi	-9.09133
▁mai	-9.09604
phú	-9.09715
▁cam	-9.09778
▁khuyến	-9.09828
▁thư	-9.0992
mỹ	-9.10052
▁nắm	-9.10168
phá	-9.10175
▁ngắn	-9.10185
theo	-9.10205
▁man	-9.10226
dưỡng	-9.10346
▁linh	-9.10477
▁dừng	-9.10514
▁chục	-9.10596
bại	-9.10818
▁núi	-9.1095
▁tấm	-9.11158
▁v	-9.1122
làm	-9.11395
▁phố	-9.11437
thao	-9.1146
▁14	-9.11511
hoạ	-9.11534
▁rút	-9.11615
▁giả	-9.11626
mẫu	-9.11651
hoa	-9.11765
đường	-9.11951
▁lâm	-9.11955
cục	-9.12152
▁trăm	-9.12366
mộ	-9.12371
nhật	-9.12455
▁tờ	-9.12573
▁đài	-9.12645
▁thuận	-9.12652
cập	-9.13173
▁50	-9.13209
la	-9.13392
sung	-9.13394
chấp	-9.13542
khúc	-9.13964
c	-9.14103
▁dần	-9.14251
▁xếp	-9.14558
bệnh	-9.14646
thuộc	-9.14785
▁đem	-9.1524
▁13	-9.15328
▁trải	-9.15343
▁tphcm	-9.15395
▁khắc	-9.15464
▁vé	-9.15819
vũ	-9.15875
trương	-9.16095
phạt	-9.16203
mục	-9.16333
▁đợt	-9.16338
▁lắm	-9.16616
gồm	-9.16633
▁kích	-9.16662
muốn	-9.16674
nữa	-9.16699
▁cực	-9.16824
▁lái	-9.1691
▁hấp	-9.17256
▁trồng	-9.17343
▁gương	-9.17353
nhà	-9.17467
cận	-9.17487
sàng	-9.17809
▁ngăn	-9.1802
▁cười	-9.18076
▁lượt	-9.1821
▁nghìn	-9.18251
ngại	-9.18574
phận	-9.18873
▁dạy	-9.18951
1	-9.19183
▁hài	-9.19192
góp	-9.19218
▁km	-9.19274
▁tôn	-9.19309
▁phi	-9.19456
sa	-9.19562
▁thú	-9.19707
▁dịp	-9.19804
còn	-9.20042
▁thôn	-9.20171
thấy	-9.20228
▁đòi	-9.20564
▁cú	-9.20615
▁17	-9.2092
tuyển	-9.21016
giản	-9.21024
nha	-9.21158
▁real	-9.21187
▁trị	-9.21253
thưởng	-9.21274
sóc	-9.21384
▁đen	-9.21532
chủ	-9.21617
mai	-9.21696
cửa	-9.21713
▁đỗ	-9.21854
▁cựu	-9.21904
tỏ	-9.21921
▁sợ	-9.22235
▁trụ	-9.2249
dàng	-9.22611
▁bờ	-9.22693
▁môn	-9.22758
▁hạng	-9.22871
nhuận	-9.23016
▁rơi	-9.23058
▁24	-9.23293
▁p	-9.23369
phong	-9.23425
▁phổ	-9.23459
xe	-9.23484
kinh	-9.2394
▁võ	-9.23963
▁cấm	-9.24013
lạc	-9.24108
dũng	-9.2442
▁xu	-9.24469
tắc	-9.24556
ràng	-9.24869
▁buộc	-9.24876
▁kêu	-9.24971
đa	-9.25118
▁đám	-9.25118
▁./	-9.25218
▁kiên	-9.25374
không	-9.25578
thụ	-9.25959
▁tung	-9.26052
▁thịt	-9.26217
vẻ	-9.26289
▁thượng	-9.2647
▁chở	-9.26547
▁2017	-9.26656
▁bến	-9.27006
▁mắc	-9.27034
3	-9.27232
▁sữa	-9.27336
▁đọc	-9.27381
hồng	-9.27487
chuẩn	-9.27514
▁trời	-9.27516
▁clb	-9.27524
▁ha	-9.27527
▁quen	-9.27557
▁kém	-9.27785
▁chelsea	-9.27915
điều	-9.27919
tuý	-9.28031
▁sàn	-9.28104
▁nêu	-9.28119
vì	-9.28128
địa	-9.28195
▁chữ	-9.28441
hỏi	-9.28606
▁phí	-9.28806
▁bão	-9.29133
khoán	-9.29198
hoạt	-9.29201
▁hữu	-9.29228
mẽ	-9.29267
▁hề	-9.29322
▁trú	-9.29379
mô	-9.29412
tăng	-9.29472
▁40	-9.29475
▁ngủ	-9.29551
▁xong	-9.29608
đủ	-9.29702
lưu	-9.29821
▁bây	-9.29864
▁2009	-9.3026
▁cuốn	-9.30298
gắng	-9.30378
▁đột	-9.3055
binh	-9.30647
vong	-9.3076
▁chấn	-9.30788
thơ	-9.30853
châu	-9.30853
bỏ	-9.31028
loại	-9.3131
▁thảo	-9.31486
▁cướp	-9.31711
bè	-9.31936
▁i	-9.3213
▁rời	-9.32156
thuỷ	-9.32276
▁chàng	-9.32346
▁hưởng	-9.32404
▁quà	-9.32645
▁chậm	-9.32707
đảm	-9.32774
nối	-9.32888
▁xăng	-9.32949
biển	-9.32964
▁25	-9.32976
▁cơn	-9.3302
▁thần	-9.33087
▁trò	-9.33431
▁vệ	-9.33721
tuấn	-9.33859
▁nàng	-9.3393
▁băng	-9.34181
▁phan	-9.34368
loạt	-9.34641
▁giết	-9.3478
hay	-9.34794
mình	-9.34813
▁tóc	-9.34865
▁19	-9.34948
▁lan	-9.35448
▁21	-9.35769
▁ngược	-9.35774
▁phạt	-9.35873
▁khắp	-9.35929
▁buồn	-9.35945
▁ước	-9.36002
chung	-9.36075
▁kg	-9.36365
▁chứa	-9.364
▁bày	-9.36519
▁tồn	-9.36553
▁tù	-9.3658
▁tầng	-9.36592
giải	-9.36759
▁cử	-9.36914
▁ánh	-9.37149
▁giọng	-9.37186
xác	-9.37373
đó	-9.37485
▁vẻ	-9.37726
gòn	-9.3779
đích	-9.37981
thôn	-9.38045
▁súng	-9.38062
d	-9.38135
▁miễn	-9.38192
▁thoát	-9.382
▁thẻ	-9.38332
▁syria	-9.38381
kim	-9.38653
việt	-9.38655
▁ngô	-9.38713
▁trạm	-9.38904
▁đt	-9.38996
hiểu	-9.391
▁căng	-9.39105
▁sắc	-9.39241
▁lá	-9.39425
▁chữa	-9.39486
đồ	-9.39616
▁lối	-9.39622
▁đàm	-9.39727
▁tỏ	-9.39788
liệt	-9.40009
quanh	-9.40105
▁x	-9.40319
▁dao	-9.4032
▁bãi	-9.40369
▁hè	-9.40459
ánh	-9.40513
▁nỗi	-9.4061
▁rượu	-9.40943
▁lúa	-9.40977
khấu	-9.41073
▁dựa	-9.4115
▁sài	-9.41365
▁dây	-9.4144
▁vĩnh	-9.4162
▁khoá	-9.41636
▁lạ	-9.41663
▁kiếm	-9.4183
thi	-9.41899
▁quang	-9.42187
▁tưởng	-9.42335
này	-9.42482
▁la	-9.42732
cuộc	-9.4283
tầng	-9.42844
▁video	-9.43117
▁lỗi	-9.4316
city	-9.43441
▁khánh	-9.43473
▁nét	-9.43482
▁phép	-9.43504
▁arsenal	-9.43742
mới	-9.43878
▁lẫn	-9.43895
▁rau	-9.44069
▁khuôn	-9.4409
▁chào	-9.44211
▁thưởng	-9.4433
▁kênh	-9.44355
▁nổ	-9.44461
▁vinh	-9.44475
giám	-9.44601
▁bắn	-9.44922
▁in	-9.45094
tinh	-9.45097
▁trông	-9.45129
vinh	-9.45283
▁ngàn	-9.45505
hưng	-9.45568
▁gấp	-9.46067
▁thẳng	-9.46118
▁trương	-9.46176
trách	-9.46236
▁thúc	-9.46462
chúng	-9.46511
▁buôn	-9.46512
lâm	-9.46513
khảo	-9.46662
khi	-9.46679
▁hâm	-9.46805
dõi	-9.47047
▁22	-9.47113
▁liền	-9.47456
đương	-9.47728
cup	-9.47764
giảm	-9.47849
▁bồi	-9.4804
yên	-9.48275
lục	-9.48306
tiền	-9.48432
▁sóng	-9.48498
▁nộp	-9.48701
▁lào	-9.48738
▁d	-9.48779
gọi	-9.49001
▁hùng	-9.4908
▁e	-9.49095
quản	-9.49171
kê	-9.49366
▁kèm	-9.49382
phán	-9.4954
▁xinh	-9.4983
▁can	-9.49853
▁vững	-9.50068
trận	-9.50174
▁tức	-9.50175
▁ngang	-9.50234
▁sạch	-9.50264
ro	-9.50404
▁lũ	-9.5042
bào	-9.50429
đoán	-9.50794
tuổi	-9.50863
▁quên	-9.51044
đẩy	-9.51046
cấu	-9.51046
tĩnh	-9.5119
bạc	-9.51461
▁nhắc	-9.51468
▁200	-9.51629
▁phê	-9.51751
▁dữ	-9.52059
com	-9.5216
▁giàu	-9.52183
phi	-9.52251
▁nắng	-9.52282
▁tiên	-9.52438
▁gd	-9.52474
▁tố	-9.52479
ca	-9.52544
▁ngừng	-9.52703
▁cp	-9.52771
▁váy	-9.52797
▁ngã	-9.52987
▁ví	-9.53017
▁chấm	-9.53304
▁iphone	-9.53342
tín	-9.5344
buộc	-9.53512
▁đình	-9.53569
dạng	-9.53591
▁gói	-9.53838
▁lộ	-9.53901
p	-9.53934
▁lạnh	-9.54042
đỡ	-9.54043
mật	-9.54065
tá	-9.54173
▁q	-9.54377
▁quanh	-9.54438
▁cảng	-9.54654
trúc	-9.54657
▁ts	-9.54721
▁hẳn	-9.54758
khiển	-9.54844
lắng	-9.54871
sạn	-9.54892
▁tuấn	-9.54893
▁gió	-9.54996
▁k	-9.5501
▁đừng	-9.55153
biên	-9.55206
▁ngư	-9.55206
▁nhảy	-9.5526
▁bùi	-9.55301
▁hơi	-9.55704
kiệm	-9.55882
ngoái	-9.55993
bật	-9.56044
▁23	-9.56363
thầu	-9.56451
tệ	-9.56507
▁tươi	-9.5667
phê	-9.56812
chi	-9.56924
hôn	-9.57025
hạng	-9.57029
tấn	-9.57181
áo	-9.57303
▁thức	-9.57386
sáng	-9.57465
▁nửa	-9.57612
▁kia	-9.57966
thải	-9.58006
▁phủ	-9.58038
trấn	-9.5814
▁thai	-9.58168
▁đấy	-9.58197
▁đèn	-9.58306
▁tim	-9.58313
mắn	-9.58492
▁bối	-9.58956
▁kịch	-9.58993
mừng	-9.59001
▁khung	-9.59002
dáng	-9.59044
lãm	-9.59175
▁lửa	-9.59281
▁gỗ	-9.59289
▁góc	-9.59295
ngũ	-9.59505
▁liệu	-9.5969
▁bốn	-9.59828
chữa	-9.59966
▁sa	-9.60104
trời	-9.60241
▁new	-9.60249
▁tiềm	-9.60273
▁60	-9.60477
▁500	-9.6053
▁ly	-9.60636
▁g	-9.60755
▁cát	-9.60853
▁world	-9.60898
bà	-9.60937
▁apple	-9.60955
đáo	-9.61222
▁pv	-9.61317
▁bom	-9.61529
▁túi	-9.61644
▁gà	-9.61874
▁khẩn	-9.61917
nghĩ	-9.6198
▁cty	-9.61996
▁euro	-9.62043
▁xứ	-9.62136
▁gốc	-9.62542
thẳng	-9.62551
cộng	-9.62585
▁tuỳ	-9.6266
▁thăng	-9.62804
nguyện	-9.62829
từ	-9.62874
▁lệnh	-9.63008
k	-9.63019
đáng	-9.63032
▁gạo	-9.6304
đợi	-9.63066
▁bền	-9.63164
▁internet	-9.63285
kỷ	-9.63348
huống	-9.63356
▁nhiễm	-9.63772
ơn	-9.6389
khắc	-9.64053
▁viên	-9.6422
▁ukraine	-9.64279
khích	-9.64669
▁l	-9.64834
mạc	-9.649
▁ghế	-9.64954
▁cưới	-9.65331
duy	-9.65606
▁đ	-9.65641
▁vương	-9.66004
mê	-9.66186
▁trộm	-9.66202
▁dám	-9.66217
▁mơ	-9.6626
tây	-9.66777
▁vườn	-9.66819
▁vết	-9.66953
b	-9.67169
khánh	-9.67173
▁làn	-9.67276
hoảng	-9.67345
▁dường	-9.67559
▁khóc	-9.67599
▁phấn	-9.67607
▁hôn	-9.67643
▁thảm	-9.67718
▁vỡ	-9.6775
▁sút	-9.67864
▁đinh	-9.68016
▁xúc	-9.68287
▁cơm	-9.68318
đỏ	-9.68325
bày	-9.68381
▁bữa	-9.68555
kể	-9.6862
▁trật	-9.68681
▁khảo	-9.68981
23	-9.69018
hạ	-9.69026
trào	-9.69078
nghề	-9.69081
▁đâm	-9.69172
doạ	-9.69293
cụ	-9.69308
▁bạc	-9.69316
▁ung	-9.69537
▁mái	-9.69743
nhiêu	-9.69869
▁già	-9.6987
▁á	-9.69871
▁lưới	-9.69917
▁khen	-9.70008
▁trà	-9.70207
▁rẻ	-9.70281
▁thuyền	-9.70358
▁đua	-9.70492
tội	-9.70772
▁iran	-9.7096
▁hứa	-9.71056
▁phúc	-9.71094
▁đền	-9.71096
▁mãi	-9.71099
▁phức	-9.71177
khổ	-9.71277
▁ấm	-9.71331
▁2008	-9.71427
e	-9.71532
▁0	-9.71613
mà	-9.71647
x	-9.71951
▁dung	-9.71989
▁huấn	-9.72015
phóng	-9.72161
▁tnhh	-9.72252
▁khoe	-9.72289
▁pháo	-9.72331
thiểu	-9.72416
biết	-9.72546
▁đỉnh	-9.72668
duyệt	-9.72719
tốc	-9.72748
▁hút	-9.72786
một	-9.72797
▁bò	-9.72859
▁clip	-9.72933
bá	-9.72997
/	-9.73079
ngữ	-9.73307
sứ	-9.73317
▁đe	-9.73761
di	-9.73974
▁trốn	-9.73993
bắc	-9.74203
quý	-9.74613
trữ	-9.74768
▁tường	-9.74885
tạp	-9.74924
lệnh	-9.75053
▁gợi	-9.75066
v	-9.75092
khoản	-9.7512
▁ngụ	-9.7517
chân	-9.75287
▁lạc	-9.7541
▁khô	-9.75465
▁game	-9.7559
tuyến	-9.75683
▁fan	-9.75724
đặt	-9.75772
▁giảng	-9.75825
▁loạt	-9.75835
▁lừa	-9.75895
▁giỏi	-9.75984
▁asean	-9.76081
▁kháng	-9.76238
▁tiếc	-9.76243
chương	-9.76268
▁dũng	-9.76744
tân	-9.76908
phối	-9.76936
▁bậc	-9.77075
▁loài	-9.77088
▁gian	-9.77106
▁malaysia	-9.77159
dầu	-9.77215
▁cư	-9.77577
▁kho	-9.7767
▁ngập	-9.7768
ba	-9.77714
nhiễm	-9.77737
▁trí	-9.77763
▁sư	-9.78007
đơn	-9.78092
▁trợ	-9.78288
▁chùa	-9.78421
lẻ	-9.78467
▁thpt	-9.78674
▁tạp	-9.7878
▁hằng	-9.78793
▁than	-9.78816
▁lạm	-9.78837
thiên	-9.78965
bao	-9.7926
▁trúng	-9.79323
▁đập	-9.79383
nhi	-9.79701
chẽ	-9.79787
▁huyền	-9.79942
4	-9.80026
▁cổng	-9.8023
lĩnh	-9.80572
▁thơ	-9.8062
ngày	-9.8071
trực	-9.8073
madrid	-9.80827
▁f	-9.81009
▁2015	-9.81077
▁tràn	-9.81282
▁huế	-9.81311
vời	-9.81368
▁barca	-9.814
chống	-9.81498
▁facebook	-9.81499
gỡ	-9.81578
thọ	-9.81663
nai	-9.81741
▁300	-9.8177
nhượng	-9.81993
trú	-9.81995
▁chu	-9.82092
▁lỗ	-9.82451
lãnh	-9.82461
▁ninh	-9.82503
▁ngon	-9.82536
thật	-9.82559
ngôn	-9.82734
o	-9.82751
▁lãng	-9.82787
▁brazil	-9.82834
▁nhắn	-9.82962
▁26	-9.83294
hào	-9.83363
lương	-9.83453
▁dứt	-9.83634
vân	-9.83806
dụ	-9.83984
đãi	-9.84166
trai	-9.84234
▁mũi	-9.84306
▁uy	-9.84335
▁27	-9.84375
▁hưng	-9.84432
▁dạng	-9.84554
chút	-9.84777
độc	-9.8483
vài	-9.84876
▁phẫu	-9.85517
▁chăn	-9.85565
đua	-9.85728
▁mu	-9.85841
mềm	-9.86041
▁dậy	-9.86069
5	-9.86133
đàn	-9.86156
▁đặng	-9.86386
▁al	-9.86393
quán	-9.86414
▁vua	-9.867
loạn	-9.86867
▁cường	-9.87004
▁philippines	-9.87008
▁dàn	-9.87106
chặn	-9.87936
▁29	-9.88181
▁gtvt	-9.883
trưng	-9.88446
▁ống	-9.88614
sóng	-9.88624
▁mật	-9.88759
nuôi	-9.88854
phó	-9.88888
ước	-9.88915
áp	-9.88948
▁huỳnh	-9.89069
30	-9.89151
huynh	-9.89268
▁đương	-9.89486
▁hộp	-9.89571
vững	-9.89787
tàu	-9.89826
▁chiếu	-9.89835
lễ	-9.89866
▁chúc	-9.89964
túc	-9.90065
▁kính	-9.90209
▁28	-9.90277
su	-9.90451
quen	-9.90464
▁mùi	-9.90472
▁sôi	-9.90503
lộc	-9.90514
▁1.000	-9.90561
▁rác	-9.90716
▁lắp	-9.9076
▁thuyết	-9.90858
▁cấu	-9.91097
▁cập	-9.91148
hiệp	-9.91238
ngành	-9.91374
▁xâm	-9.91377
▁viêm	-9.91626
▁rủi	-9.9174
▁ngọt	-9.91924
ly	-9.92225
▁trưa	-9.92248
▁top	-9.92278
▁hiến	-9.92432
▁liverpool	-9.92476
▁thách	-9.9252
kính	-9.9264
▁binh	-9.9284
tri	-9.92893
▁vỏ	-9.92987
▁singapore	-9.93051
tất	-9.93229
▁hẹn	-9.93242
▁online	-9.93258
thú	-9.93306
phân	-9.93311
chịu	-9.93409
ma	-9.93454
▁samsung	-9.93579
mạch	-9.93642
▁cáo	-9.93755
▁35	-9.94105
chối	-9.94117
▁tam	-9.94226
loan	-9.94401
▁2016	-9.94445
những	-9.94606
▁trầm	-9.94709
▁đậm	-9.94934
▁bạo	-9.94968
▁nhãn	-9.95091
▁thép	-9.95222
▁google	-9.95257
▁chút	-9.9526
hảo	-9.95376
▁tổn	-9.95449
▁niêm	-9.95644
điển	-9.95865
▁cờ	-9.96013
dâm	-9.96044
vàng	-9.96127
▁đắt	-9.96424
▁champions	-9.96683
▁thổ	-9.96684
▁hoài	-9.96712
▁bốc	-9.96728
▁bồ	-9.96731
▁vân	-9.96808
▁cột	-9.96839
▁sốt	-9.96894
▁viễn	-9.96962
▁liệt	-9.97109
vợt	-9.97311
▁nhé	-9.97392
▁mảnh	-9.97416
▁xoá	-9.97588
▁70	-9.9759
▁nối	-9.97956
▁ngực	-9.98087
▁bụng	-9.98413
▁45	-9.98527
đẳng	-9.98607
phước	-9.98685
▁hoạ	-9.98733
l	-9.98889
▁khoẻ	-9.98915
▁cđ	-9.98926
tật	-9.98982
mái	-9.99035
điệu	-9.99062
▁ôm	-9.99074
▁kín	-9.99119
▁mệt	-9.99126
▁tứ	-9.99182
▁hoang	-9.99229
nhũng	-9.99308
▁tôm	-9.99326
▁hư	-9.99425
riêng	-9.99547
▁trưng	-9.99856
▁giây	-10.0001
▁nấu	-10.0003
▁bật	-10.0084
▁thoải	-10.0105
▁tiêm	-10.0119
▁che	-10.0122
▁treo	-10.0127
▁nghiệp	-10.0134
index	-10.0144
▁va	-10.015
thổ	-10.0159
▁thận	-10.0165
đai	-10.0171
▁đậu	-10.0173
▁xương	-10.0198
thù	-10.02
▁tải	-10.021
▁hắn	-10.0223
hát	-10.0223
▁80	-10.0233
khoảng	-10.0234
du	-10.0237
▁campuchia	-10.0254
7	-10.0255
▁dinh	-10.0265
▁khúc	-10.027
đi	-10.0278
tùng	-10.0279
▁huỷ	-10.0314
▁biệt	-10.0319
▁đạn	-10.0328
▁duyên	-10.0331
mưu	-10.0332
xế	-10.034
▁ga	-10.0359
▁smartphone	-10.0362
▁phỏng	-10.0371
▁eu	-10.0374
▁tháo	-10.0376
nói	-10.0388
▁trôi	-10.0393
▁khẩu	-10.0403
▁israel	-10.0421
thuẫn	-10.0421
▁90	-10.0435
▁miệng	-10.0438
▁csgt	-10.0447
▁tiện	-10.0459
cái	-10.046
▁hiếm	-10.0466
thẩm	-10.0467
▁indonesia	-10.0469
▁lô	-10.047
▁tế	-10.0471
tán	-10.0473
▁lưng	-10.0494
▁hiền	-10.0508
▁trứng	-10.0516
cưới	-10.0525
▁chảy	-10.0558
▁rạng	-10.0561
▁điển	-10.0568
kích	-10.0585
▁dày	-10.0587
trẻ	-10.0588
ngoại	-10.0592
đào	-10.0611
▁bang	-10.063
nhớ	-10.0642
bạch	-10.0655
▁chạm	-10.0666
▁camera	-10.0682
▁khổng	-10.0694
▁trống	-10.0702
▁bạch	-10.0704
▁32	-10.0707
yết	-10.0708
chiếu	-10.0714
xếp	-10.0721
▁tiệc	-10.0726
▁chín	-10.073
▁xứng	-10.0735
▁tand	-10.0762
thất	-10.0768
tim	-10.0773
toà	-10.0778
▁thùng	-10.08
mắc	-10.0809
▁đốt	-10.0815
▁trại	-10.0829
▁bớt	-10.0842
▁bột	-10.0856
▁100%	-10.089
▁giày	-10.089
▁sắt	-10.0891
▁thở	-10.0904
kiều	-10.0904
▁vietnam	-10.0913
▁canh	-10.0914
▁miếng	-10.0922
▁kiện	-10.0946
▁tan	-10.0948
york	-10.0957
▁lợn	-10.0964
▁bám	-10.0991
thăng	-10.0999
lê	-10.1015
▁phiếu	-10.1023
lưới	-10.1025
sắt	-10.1045
▁sáu	-10.1049
đuổi	-10.1051
dứt	-10.1082
▁đoạt	-10.1085
▁lò	-10.1104
ẩn	-10.1115
▁lọt	-10.1115
bắt	-10.1122
▁co	-10.1134
▁vắng	-10.1143
cánh	-10.1149
▁đồn	-10.115
▁san	-10.1154
xa	-10.1166
▁rà	-10.1204
▁rửa	-10.1217
ổn	-10.1239
na	-10.1241
▁chiêu	-10.1277
▁van	-10.1282
trừ	-10.1289
da	-10.13
▁ronaldo	-10.1301
toả	-10.1306
▁bv	-10.1317
▁xóm	-10.1337
▁đam	-10.1338
▁quyến	-10.1361
▁android	-10.1364
thuyết	-10.1368
▁mê	-10.1368
▁khuyên	-10.1373
sắm	-10.1382
▁chuỗi	-10.1389
cung	-10.1397
▁trinh	-10.1401
▁xuyên	-10.1407
huyết	-10.1408
▁cúp	-10.1413
lồ	-10.143
kém	-10.1443
can	-10.1451
▁david	-10.1458
▁bia	-10.1462
▁say	-10.1464
▁hào	-10.1472
lỗi	-10.1486
▁ruột	-10.1489
nghi	-10.1493
▁lành	-10.1496
▁2018	-10.1501
mi	-10.1505
▁ven	-10.1507
ngân	-10.1509
điệp	-10.1514
▁mâu	-10.1522
r	-10.1525
đài	-10.1528
▁gọn	-10.1532
▁thập	-10.1534
▁tượng	-10.1543
hứng	-10.1544
▁pin	-10.1547
▁vươn	-10.1549
▁barcelona	-10.1549
▁săn	-10.1554
▁bọn	-10.1565
8	-10.1572
nhàng	-10.1619
rối	-10.1624
19	-10.1628
▁album	-10.1639
trần	-10.1645
▁phật	-10.1653
nóng	-10.1667
▁dính	-10.1668
▁ép	-10.1679
▁de	-10.1679
▁giam	-10.1687
tt	-10.1689
▁khâu	-10.1713
lượt	-10.1716
cắp	-10.1729
▁giấu	-10.1733
tờ	-10.1737
âm	-10.1739
▁tắt	-10.1751
gốc	-10.1772
ts	-10.1775
▁thả	-10.1789
▁hàm	-10.1791
man	-10.1793
▁ôtô	-10.1802
khu	-10.1802
▁xi	-10.1819
▁lính	-10.1833
▁bùng	-10.1836
son	-10.1853
mỏi	-10.1856
rũ	-10.1859
6	-10.1861
▁giấc	-10.1862
▁nụ	-10.1871
vả	-10.188
đồn	-10.1881
▁windows	-10.1888
▁táo	-10.1897
▁premier	-10.1908
▁tốn	-10.1909
▁chó	-10.1916
▁cống	-10.1917
▁vĩ	-10.1936
nơi	-10.1937
bang	-10.1947
lạ	-10.1956
my	-10.1968
ngầm	-10.197
▁hại	-10.1973
▁dọc	-10.1973
▁cứng	-10.198
dị	-10.1984
tàng	-10.1989
▁ngọn	-10.2003
trắng	-10.2003
trùng	-10.2009
▁australia	-10.2024
▁mét	-10.2026
km	-10.2028
▁mốc	-10.2028
▁khổ	-10.2036
bó	-10.2037
▁2007	-10.2041
▁sốc	-10.2047
co	-10.2058
hằng	-10.2064
cổ	-10.2069
▁hung	-10.2083
▁giường	-10.2087
ép	-10.2094
trinh	-10.2098
▁vất	-10.2111
▁50%	-10.2114
▁cất	-10.2126
▁trịnh	-10.2139
▁hầm	-10.2139
trả	-10.2148
đoạt	-10.2149
▁vẽ	-10.2166
▁mát	-10.2166
▁khớp	-10.2173
đêm	-10.219
▁bi	-10.2194
▁trọn	-10.2196
tai	-10.22
▁chìm	-10.2222
▁tàn	-10.2234
▁chốt	-10.2251
▁muối	-10.2251
▁trục	-10.227
▁đầm	-10.2271
▁cản	-10.2274
▁thâm	-10.2291
hơi	-10.2293
đạt	-10.2296
▁400	-10.2306
tồn	-10.2309
▁inch	-10.2313
▁website	-10.232
cương	-10.2326
▁trừ	-10.2328
▁leo	-10.2331
đàm	-10.2336
hồn	-10.2338
▁messi	-10.2368
▁thói	-10.2368
▁bù	-10.2392
trong	-10.24
▁giật	-10.2409
▁tròn	-10.2429
▁mừng	-10.2434
▁mềm	-10.2438
▁đuổi	-10.2442
▁gánh	-10.245
▁hiếu	-10.2472
▁bỗng	-10.2473
nổ	-10.2479
▁mầm	-10.248
thiệp	-10.249
▁tri	-10.2495
tảng	-10.2497
▁đống	-10.2507
▁não	-10.2508
▁lục	-10.2513
in	-10.2517
▁sổ	-10.2528
lầm	-10.2532
bí	-10.2538
ái	-10.254
▁khoan	-10.2543
▁đan	-10.2545
▁vov	-10.2549
▁ngắm	-10.2559
▁36	-10.2566
lao	-10.2578
kịch	-10.2579
▁dựng	-10.2588
▁bê	-10.2593
▁milan	-10.2594
▁vội	-10.2594
▁suất	-10.2601
▁thơm	-10.2603
▁xưa	-10.261
▁lai	-10.2618
▁vff	-10.2629
non	-10.263
▁tắm	-10.2638
▁xả	-10.2641
▁bận	-10.2655
lá	-10.2663
uống	-10.2667
ngãi	-10.2682
trở	-10.269
▁lít	-10.2692
▁hnx	-10.2696
▁thợ	-10.2698
▁mỏng	-10.2703
dây	-10.2708
▁ổ	-10.2733
▁31	-10.2734
▁ấp	-10.2738
▁hi	-10.2741
thang	-10.2751
▁argentina	-10.2776
▁nhiên	-10.279
▁vướng	-10.2798
▁đeo	-10.2805
▁news	-10.2825
chỗ	-10.2827
băng	-10.2828
▁đích	-10.2849
▁reuters	-10.2854
▁vtc	-10.2859
▁bông	-10.2861
đt	-10.2872
tú	-10.2884
▁ii	-10.2889
▁chim	-10.2895
ga	-10.2901
tụ	-10.2902
nga	-10.2914
cầm	-10.2917
▁nhựa	-10.2919
▁giang	-10.2921
vĩnh	-10.2934
▁mây	-10.2937
cai	-10.2967
xanh	-10.298
▁giáp	-10.299
▁ngưỡng	-10.3022
▁nút	-10.3033
▁gã	-10.3034
▁cúm	-10.3041
▁nha	-10.3052
▁dược	-10.3059
xóm	-10.3062
lo	-10.3073
▁cụm	-10.3079
▁toán	-10.3092
ha	-10.3106
đọc	-10.3115
▁nh	-10.3146
▁mc	-10.3155
chàng	-10.3156
▁bayern	-10.3158
hè	-10.3168
▁tuân	-10.318
▁triệt	-10.3192
▁chỉnh	-10.3192
▁galaxy	-10.3195
nhánh	-10.3202
▁o	-10.3207
▁tu	-10.3208
▁sưu	-10.3214
▁lão	-10.3214
▁10%	-10.3249
thước	-10.3249
▁nhnn	-10.3275
trích	-10.3278
▁sea	-10.328
▁lệ	-10.3294
vẹn	-10.3296
▁ném	-10.3303
▁london	-10.3332
ấn	-10.3333
▁xoay	-10.3338
▁củng	-10.3355
▁2020	-10.3359
tả	-10.3364
thách	-10.3365
▁inter	-10.3386
▁quỳnh	-10.3398
▁tệ	-10.3413
hoan	-10.3419
▁ngạc	-10.3426
web	-10.343
▁tô	-10.3454
nề	-10.3455
▁củ	-10.3462
▁vải	-10.3471
▁lee	-10.3482
mã	-10.3487
hiến	-10.3504
▁khiếu	-10.351
▁huyết	-10.3511
gái	-10.3524
vận	-10.3526
▁taxi	-10.3536
▁bề	-10.3543
liên	-10.3549
games	-10.3558
▁tang	-10.3578
20	-10.358
▁lẽ	-10.3596
nhĩ	-10.3598
▁vtv	-10.36
▁bế	-10.3618
▁kiêm	-10.3627
vương	-10.3635
▁bảy	-10.3637
đón	-10.364
▁150	-10.3651
có	-10.3658
▁hối	-10.3685
lang	-10.3685
mơ	-10.3689
▁gs	-10.3696
▁chinh	-10.3716
▁hiển	-10.3718
▁bếp	-10.3731
▁show	-10.3735
united	-10.3744
hẹn	-10.377
đạp	-10.3773
▁chặn	-10.378
dắt	-10.3806
dấu	-10.3807
▁trích	-10.381
▁hđqt	-10.3818
cô	-10.3822
thoát	-10.3831
▁đợi	-10.3833
▁vũng	-10.3834
▁of	-10.3839
▁italia	-10.3842
ai	-10.3854
▁r	-10.3872
▁csđt	-10.3875
tông	-10.3892
hoả	-10.3896
▁đành	-10.3898
mua	-10.3898
nhắc	-10.3912
▁nhịp	-10.3923
nợ	-10.3938
ngạch	-10.3946
rỡ	-10.3949
▁khống	-10.3957
▁20%	-10.3964
thập	-10.3966
▁afp	-10.3969
▁hđnd	-10.3975
▁2006	-10.3976
▁mourinho	-10.3995
▁luyện	-10.3999
▁vạn	-10.4004
làng	-10.4007
▁nhạy	-10.4017
▁obama	-10.4024
▁chênh	-10.4026
▁ảo	-10.4043
cãi	-10.4044
hạnh	-10.4053
▁bơi	-10.4059
▁hưu	-10.4082
sâu	-10.4082
▁tách	-10.4094
phim	-10.4114
00	-10.4122
▁cđv	-10.4134
▁phe	-10.4156
▁washington	-10.4176
▁mỏ	-10.418
▁trừng	-10.4181
▁lật	-10.419
▁răng	-10.42
▁giàn	-10.4206
▁cẩn	-10.4206
▁khơi	-10.4208
▁tha	-10.4213
▁toả	-10.423
lệch	-10.4245
▁dáng	-10.4255
năm	-10.4261
▁múa	-10.4262
▁đo	-10.4265
▁37	-10.4266
▁ngôn	-10.4272
▁manchester	-10.4277
ngự	-10.4277
▁hot	-10.4303
▁cẩm	-10.4306
▁quỷ	-10.433
▁tướng	-10.4351
▁mũ	-10.4352
▁thưa	-10.4371
sót	-10.4379
▁rối	-10.44
▁khuyết	-10.4406
▁cài	-10.4411
sánh	-10.4413
▁mv	-10.4436
huỷ	-10.445
chạm	-10.4469
▁cương	-10.4473
▁gan	-10.4479
▁bát	-10.4481
lở	-10.4496
▁ipad	-10.4518
▁chánh	-10.4527
▁ẩm	-10.4539
▁nồng	-10.4542
khoá	-10.4554
▁ưa	-10.4572
▁ám	-10.4574
ngào	-10.4579
▁muộn	-10.4582
tang	-10.4585
▁antđ	-10.4585
▁34	-10.459
▁vitamin	-10.459
liêm	-10.4592
▁im	-10.4592
▁đĩa	-10.4594
▁thạch	-10.4602
▁thắt	-10.4621
▁phước	-10.4622
để	-10.4633
▁30%	-10.4635
rãi	-10.4652
▁microsoft	-10.4656
▁bụi	-10.4665
nại	-10.467
▁rắn	-10.4671
ngừa	-10.4674
▁mổ	-10.4675
▁nhi	-10.4675
▁33	-10.4681
▁ngõ	-10.4683
huấn	-10.4688
li	-10.4702
nguyễn	-10.4704
lạnh	-10.4718
▁iraq	-10.473
mãi	-10.4744
▁dạ	-10.4769
▁ruộng	-10.478
bổng	-10.4782
▁ngại	-10.4785
▁dâu	-10.4791
▁vịnh	-10.4794
hiếu	-10.4801
▁trùng	-10.4807
buýt	-10.482
▁phái	-10.4838
ri	-10.4845
net	-10.4849
▁cắm	-10.4856
màu	-10.4863
▁cưỡng	-10.487
▁mực	-10.4874
trồng	-10.4881
▁mộ	-10.4894
▁tiệm	-10.4902
▁kem	-10.4904
▁mm	-10.4924
▁hứng	-10.4939
▁kê	-10.4939
▁ctcp	-10.4976
▁38	-10.4981
▁sạt	-10.4993
▁na	-10.4999
mạn	-10.5007
▁nokia	-10.5008
▁mượn	-10.5009
lặng	-10.5022
▁liều	-10.5025
xưa	-10.5037
▁lông	-10.504
▁sợi	-10.5052
tặng	-10.5057
▁tủ	-10.5074
▁gdp	-10.5087
nhỏ	-10.5089
▁is	-10.5093
ít	-10.5107
thuý	-10.5108
▁thiện	-10.5109
▁10.000	-10.5119
▁dưỡng	-10.5148
▁1,5	-10.515
nhiệt	-10.5153
▁ttxvn	-10.5155
tối	-10.5164
thuốc	-10.517
▁béo	-10.5176
đột	-10.5194
▁tông	-10.5195
▁vđv	-10.5205
tháng	-10.5208
▁chừng	-10.5223
tu	-10.5227
diệt	-10.5228
▁đỡ	-10.5229
▁john	-10.5235
mau	-10.5242
▁dâng	-10.5245
▁mạch	-10.5253
▁úc	-10.5262
▁lây	-10.5263
▁tt	-10.5263
▁cận	-10.5267
▁cỏ	-10.5268
▁gạch	-10.528
▁kh	-10.5281
phụ	-10.5281
▁thờ	-10.5287
khứ	-10.5289
▁lấn	-10.5296
▁chặng	-10.5298
▁khát	-10.5305
hỏng	-10.5306
▁chí	-10.5308
▁dồn	-10.531
bóng	-10.5311
triều	-10.5338
kg	-10.5347
gió	-10.5355
▁khói	-10.5358
ư	-10.5367
▁dị	-10.5377
trại	-10.5385
le	-10.5392
dâu	-10.5403
▁suối	-10.5428
▁gỡ	-10.5436
▁paris	-10.5436
▁nảy	-10.5439
▁heo	-10.544
▁nghiện	-10.5441
▁nguyện	-10.5447
▁đồi	-10.5448
▁hô	-10.5457
hiền	-10.5461
dịp	-10.5464
▁bhxh	-10.5469
mặc	-10.5478
▁2.000	-10.548
đăng	-10.5496
▁mồ	-10.5505
may	-10.5511
nông	-10.5514
khác	-10.5526
khuẩn	-10.5529
▁cn	-10.5539
cản	-10.5565
▁khoáng	-10.5568
▁bưu	-10.5569
▁600	-10.5586
tuệ	-10.5593
▁đẳng	-10.5598
tóc	-10.5608
▁mệnh	-10.5628
ngợi	-10.5647
▁côn	-10.5655
▁hỗn	-10.5658
▁nhì	-10.5666
▁chém	-10.5669
▁hòn	-10.567
▁lỡ	-10.5672
▁pc	-10.5674
quỳnh	-10.5684
▁tottenham	-10.5689
▁khéo	-10.5689
hoàn	-10.5694
▁đói	-10.5718
▁canada	-10.5726
▁chuột	-10.5742
▁2005	-10.5743
bão	-10.5743
▁tùng	-10.5746
▁sụt	-10.5748
sạch	-10.5753
đổ	-10.5754
song	-10.5757
tháp	-10.578
▁lộc	-10.5792
sang	-10.5793
trụ	-10.5805
bỏng	-10.5806
▁khoác	-10.581
nghiên	-10.5831
▁nhan	-10.5837
▁btc	-10.5848
mãn	-10.586
▁tán	-10.5861
▁trấn	-10.5863
▁myanmar	-10.5869
%	-10.5872
đà	-10.5875
▁trâu	-10.5877
▁lắng	-10.5878
▁lôi	-10.5905
▁đê	-10.5906
ô	-10.592
▁gas	-10.5933
lành	-10.5947
▁sóc	-10.5994
kiểm	-10.5997
▁thằng	-10.6007
▁ùn	-10.6015
▁tuyết	-10.6025
▁nn	-10.6025
9	-10.6047
xin	-10.6056
lái	-10.6062
▁olympic	-10.6064
mực	-10.6081
▁j	-10.6089
▁ẩn	-10.6095
▁mảng	-10.61
rào	-10.6101
▁pgs	-10.6104
▁khoảnh	-10.6104
▁cntt	-10.6107
▁bđs	-10.6119
▁đẻ	-10.6125
▁móng	-10.6125
sợ	-10.613
▁tạ	-10.6131
▁láng	-10.6131
▁sập	-10.6133
▁lấp	-10.614
▁trạng	-10.6142
mối	-10.6144
tiễn	-10.6146
▁trượt	-10.6164
máu	-10.6172
▁mười	-10.6175
▁khép	-10.6175
▁chuyền	-10.6208
thai	-10.6213
▁park	-10.6218
▁vỉa	-10.6218
▁afghanistan	-10.6226
lớp	-10.6226
▁mi	-10.6231
▁ác	-10.6232
▁hs	-10.6232
▁đắk	-10.6237
▁bấm	-10.6267
▁nhầm	-10.6284
chừng	-10.6285
▁hỏng	-10.6296
ngủ	-10.63
thự	-10.6301
▁tour	-10.6312
▁lậu	-10.6317
▁truyện	-10.6319
lâu	-10.6346
gb	-10.6348
chắc	-10.6361
nửa	-10.6405
chốt	-10.641
▁thịnh	-10.6413
xạ	-10.6414
▁đáy	-10.6432
▁dạo	-10.6444
chị	-10.6451
thịnh	-10.6453
viết	-10.6454
▁ngộ	-10.6464
▁non	-10.6466
cốt	-10.6476
▁thuần	-10.6483
▁tú	-10.6486
▁mỡ	-10.649
cp	-10.6495
hoài	-10.6497
▁dập	-10.6503
utd	-10.651
▁nấm	-10.6513
móc	-10.654
trăng	-10.6541
chủng	-10.6554
▁thụ	-10.656
▁rooney	-10.6567
vai	-10.6571
▁trọ	-10.6583
thì	-10.6583
▁bks	-10.6584
pa	-10.6593
yến	-10.6597
hẹp	-10.6604
xá	-10.6612
▁hoành	-10.6616
lạt	-10.6617
thạnh	-10.6618
mệnh	-10.6619
kì	-10.662
▁gò	-10.6622
thượng	-10.6625
đen	-10.6625
cháy	-10.6626
▁tháp	-10.6672
▁phẩm	-10.6684
▁rủ	-10.6703
lam	-10.6721
chuyền	-10.6722
▁dệt	-10.6722
▁khôi	-10.6726
▁dọn	-10.6726
hcm	-10.6731
▁lam	-10.6733
sen	-10.6735
chợ	-10.6738
▁nhắm	-10.6763
khó	-10.6778
to	-10.6782
▁ngờ	-10.6782
▁thuý	-10.6791
▁hang	-10.6794
mẻ	-10.6798
bài	-10.6803
▁chai	-10.6812
uý	-10.6821
▁yến	-10.6855
trội	-10.6866
nổi	-10.6867
giáp	-10.6897
▁800	-10.6906
▁chán	-10.691
▁lồng	-10.6915
▁ngựa	-10.6925
▁sứ	-10.693
▁42	-10.693
▁tụ	-10.6932
er	-10.694
thuyền	-10.6942
▁cỡ	-10.6943
nghỉ	-10.6944
▁bút	-10.6953
giúp	-10.6954
▁đụng	-10.6954
mang	-10.6954
trà	-10.6955
thừa	-10.6957
▁vở	-10.6958
▁ngầm	-10.6961
các	-10.6965
mến	-10.6982
▁120	-10.6982
▁lạng	-10.6994
kéo	-10.7002
▁cup	-10.7004
▁01	-10.7009
thận	-10.7016
dời	-10.7022
▁honda	-10.7026
▁2000	-10.7026
ni	-10.7038
▁th	-10.704
▁ngón	-10.7041
▁rực	-10.7048
▁39	-10.7052
▁đằng	-10.7069
đớn	-10.7074
▁email	-10.7082
f	-10.7084
▁mexico	-10.7089
▁hiểm	-10.709
▁li	-10.71
▁cước	-10.7111
▁su	-10.7112
▁xô	-10.7143
chăng	-10.7166
thuỳ	-10.7171
xô	-10.7183
▁tv	-10.7183
▁virus	-10.7192
▁tám	-10.7194
ch	-10.7198
z	-10.7206
lu	-10.7211
▁thcs	-10.7212
▁rèn	-10.7212
thờ	-10.7215
lạp	-10.7228
▁nato	-10.7231
▁bơm	-10.7238
men	-10.7242
▁nhí	-10.7245
▁lứa	-10.7245
hò	-10.7247
▁kiềm	-10.7249
▁gay	-10.7257
▁mộc	-10.7258
dò	-10.7264
▁100.000	-10.7278
▁hose	-10.7282
▁mặn	-10.7288
▁dịu	-10.729
▁mọc	-10.7298
dĩ	-10.7303
nhung	-10.7304
chúa	-10.7308
giam	-10.7323
▁ao	-10.7333
▁quãng	-10.7336
ức	-10.7338
nhưỡng	-10.7353
nhở	-10.737
tráng	-10.7374
▁sjc	-10.7387
▁lđ	-10.7388
▁hoảng	-10.7392
▁hồn	-10.7401
▁55	-10.7413
▁lăng	-10.7418
▁thổi	-10.742
▁rồng	-10.742
dạy	-10.7422
▁nở	-10.7429
kho	-10.7434
giấy	-10.7441
ngơi	-10.7444
gũi	-10.7447
▁sĩ	-10.7448
▁ròng	-10.7449
▁mù	-10.745
▁kì	-10.7453
nguồn	-10.7454
▁vang	-10.7463
▁sương	-10.7476
bé	-10.7481
▁giáng	-10.7482
cá	-10.7492
▁....	-10.7492
▁trân	-10.7505
▁đắc	-10.7525
▁bó	-10.7526
▁điệu	-10.7526
huế	-10.7534
▁48	-10.7541
de	-10.7546
▁ghép	-10.7556
▁dốc	-10.7561
▁lặng	-10.7566
▁rào	-10.7574
▁lọc	-10.7581
xách	-10.7583
▁tno	-10.7584
lí	-10.7584
dội	-10.7588
khởi	-10.7598
tường	-10.7635
cứng	-10.7663
10	-10.7674
▁mày	-10.769
▁mông	-10.769
liền	-10.7706
▁chip	-10.7715
rồi	-10.7725
▁ơi	-10.7729
▁qh	-10.7737
▁đứt	-10.774
▁luân	-10.7747
▁nhiếp	-10.7752
▁."	-10.7761
cây	-10.7764
▁phun	-10.7765
đáp	-10.7766
▁dải	-10.7783
▁3.000	-10.7787
▁băn	-10.7792
tổ	-10.7797
▁michael	-10.7802
ân	-10.7806
thoảng	-10.7808
▁ql	-10.7808
▁khăn	-10.781
bổ	-10.7813
khoăn	-10.7813
▁gục	-10.7816
▁ap	-10.7829
cậy	-10.7836
cần	-10.7854
▁toạ	-10.7861
▁điên	-10.7873
▁thô	-10.7874
chiều	-10.7876
▁thấm	-10.7876
kông	-10.7889
▁libya	-10.789
▁xông	-10.7898
▁đuôi	-10.7914
▁65	-10.7926
▁toyota	-10.7943
▁tắc	-10.7949
▁chả	-10.7956
▁khe	-10.7969
ti	-10.7971
mát	-10.7985
bón	-10.799
kiệt	-10.7994
▁pl	-10.8004
giống	-10.8008
hụt	-10.8012
▁thánh	-10.8013
▁cm	-10.8013
▁hcv	-10.8022
bạo	-10.8023
về	-10.8038
▁ân	-10.8055
▁gián	-10.8072
▁lân	-10.8074
▁chê	-10.8078
gìn	-10.8078
phượng	-10.808
▁ôn	-10.8088
▁thao	-10.8093
▁ho	-10.8098
▁lhq	-10.8116
▁5.000	-10.8124
▁sony	-10.8136
sổ	-10.8142
▁pakistan	-10.8155
▁bộc	-10.8175
dược	-10.8177
đạn	-10.8181
▁gãy	-10.8183
▁tím	-10.821
▁41	-10.8215
▁lữ	-10.8221
▁hổ	-10.8226
▁cay	-10.8232
▁kiều	-10.8239
▁hoả	-10.8251
▁46	-10.8252
▁2004	-10.8253
▁atletico	-10.8257
▁43	-10.8263
▁đoán	-10.8266
▁xà	-10.8269
▁cai	-10.8273
▁soạn	-10.8284
▁fpt	-10.8284
▁bỉ	-10.829
▁nhẫn	-10.8308
▁showbiz	-10.832
me	-10.8323
khám	-10.8324
thắn	-10.833
đựng	-10.8345
▁buông	-10.835
▁viettel	-10.8351
bích	-10.8358
khê	-10.8366
▁hiv	-10.8371
▁chè	-10.8373
▁70%	-10.8382
vang	-10.8387
0	-10.8388
liga	-10.8396
tụng	-10.8399
hãi	-10.842
tựu	-10.8424
▁cởi	-10.843
ngược	-10.8442
▁cốt	-10.8445
▁putin	-10.8466
▁lề	-10.8477
▁phán	-10.8485
▁dán	-10.8486
▁thang	-10.8504
▁rung	-10.8504
▁bể	-10.852
duyên	-10.8526
▁z	-10.8534
▁phùng	-10.8535
léo	-10.8536
fi	-10.8539
▁ồn	-10.8543
▁chôn	-10.8545
giật	-10.8545
nhã	-10.8591
bù	-10.8599
▁phổi	-10.8622
▁mờ	-10.8637
nghe	-10.8639
▁lang	-10.8649
lùng	-10.8657
▁bar	-10.8664
trái	-10.8669
cóc	-10.8675
đặc	-10.8701
▁địch	-10.8707
▁5%	-10.8711
▁trùm	-10.8711
phải	-10.8732
▁loa	-10.8741
▁thắc	-10.8751
▁tồi	-10.8754
huyền	-10.8756
▁ham	-10.8761
▁250	-10.8765
diệu	-10.8778
▁vnd	-10.8779
▁catp	-10.8804
mở	-10.8811
ngộ	-10.8825
▁đòn	-10.8836
▁ac	-10.8847
▁sung	-10.8855
▁nghiêng	-10.8866
phái	-10.8878
quy	-10.8883
thạch	-10.8883
tre	-10.8889
nhiều	-10.889
tỉnh	-10.8911
▁bấy	-10.8912
▁cua	-10.8915
▁tẩy	-10.8919
▁kcn	-10.8929
hai	-10.8932
▁qđ	-10.8933
▁44	-10.8936
đán	-10.8946
▁shb	-10.8946
▁fa	-10.8949
▁chật	-10.8955
ho	-10.8956
▁rạp	-10.8958
▁evn	-10.8963
liêu	-10.8968
sân	-10.8973
chờ	-10.8975
▁nhậu	-10.9018
▁moscow	-10.9018
▁scandal	-10.9018
▁tokyo	-10.9031
xao	-10.9047
▁mía	-10.9048
▁old	-10.9049
▁2003	-10.9049
hước	-10.9052
thăm	-10.9057
▁giận	-10.9057
xứ	-10.9059
▁ạ	-10.9066
▁xh	-10.9066
chánh	-10.9069
tuyết	-10.9075
▁51	-10.909
▁hđxx	-10.9107
▁lăn	-10.9109
nghèo	-10.9114
▁80%	-10.9116
▁giản	-10.9116
▁cãi	-10.9119
cỏ	-10.9125
dậy	-10.9131
khôi	-10.9132
▁âu	-10.9138
▁ounce	-10.9141
ngư	-10.9147
▁htc	-10.9153
măng	-10.9157
▁64	-10.9157
cạnh	-10.9157
▁700	-10.9164
▁75	-10.9168
▁rắc	-10.9172
▁thuỳ	-10.9175
▁điền	-10.918
▁bẩn	-10.9181
▁tần	-10.9189
bi	-10.92
▁khoai	-10.9204
▁thải	-10.9212
▁juventus	-10.9216
22	-10.9218
w	-10.922
hoại	-10.9235
giận	-10.9238
chảy	-10.9241
▁nếp	-10.9249
đám	-10.9257
ngưỡng	-10.9261
▁bhyt	-10.9272
▁bs	-10.9272
▁khôn	-10.9282
▁kĩ	-10.9285
://	-10.9285
▁40%	-10.9286
▁dĩ	-10.9292
ác	-10.9298
▁container	-10.9304
▁ốm	-10.932
▁1990	-10.9324
▁phơi	-10.9334
▁52	-10.9343
▁mại	-10.9348
▁phanh	-10.9348
▁ngữ	-10.9349
▁hong	-10.9353
▁sáp	-10.9358
▁47	-10.9359
▁no	-10.9366
rút	-10.9366
▁hở	-10.9374
▁thấu	-10.9396
▁trộn	-10.9397
▁liveshow	-10.9402
▁dưa	-10.9411
khát	-10.9412
▁italy	-10.9414
lọc	-10.9422
▁fdi	-10.9443
▁sim	-10.9445
▁tre	-10.9447
bái	-10.945
▁lắc	-10.9455
▁mèo	-10.9455
▁khiêu	-10.9456
già	-10.9465
▁cự	-10.9471
▁ốc	-10.9472
▁nlđ	-10.9474
▁02	-10.9478
vui	-10.949
▁bào	-10.949
rộn	-10.9491
▁chẩn	-10.9492
lộn	-10.9494
ki	-10.9494
điền	-10.9518
sửa	-10.9521
▁lùi	-10.9532
▁teen	-10.955
nđ	-10.9562
▁hố	-10.9563
▁cạn	-10.9589
kong	-10.9597
trạch	-10.9601
trải	-10.9601
▁phế	-10.9607
▁20.000	-10.961
lỗ	-10.9612
▁nướng	-10.9617
▁trump	-10.9625
▁chửi	-10.9627
▁giọt	-10.9633
đứng	-10.964
mò	-10.9641
▁lg	-10.9644
▁trào	-10.9645
45	-10.9648
bì	-10.9656
▁thủng	-10.9666
▁pa	-10.9691
rịa	-10.9693
▁sen	-10.9694
▁lặn	-10.9695
mức	-10.9706
▁mụn	-10.9712
▁vành	-10.9713
▁mường	-10.9713
▁dừa	-10.9723
bảng	-10.9743
ngột	-10.9748
▁chuối	-10.975
▁2-0	-10.9752
▁voi	-10.9764
mạo	-10.9765
▁nồi	-10.9781
▁rải	-10.9783
▁phiến	-10.9789
nàn	-10.9798
▁qui	-10.9799
▁qđnd	-10.9803
▁oan	-10.9805
▁luận	-10.9811
tù	-10.9816
▁54	-10.9828
15	-10.9838
▁eo	-10.984
tránh	-10.9846
trafford	-10.9849
▁sởi	-10.9864
▁bọc	-10.988
cm	-10.9887
▁lỏng	-10.9894
▁model	-10.9911
un	-10.9916
▁ch	-10.9945
▁sexy	-10.9956
dần	-10.9967
ka	-10.997
▁miss	-10.9982
▁à	-10.9994
▁xôn	-10.9999
▁htx	-11.0006
ji	-11.0006
ưu	-11.001
▁ki	-11.0011
hối	-11.0024
huệ	-11.0025
▁còi	-11.0026
▁1-2	-11.0027
▁bách	-11.0041
đới	-11.0053
▁xưởng	-11.0053
lậu	-11.0053
▁2-1	-11.0057
chua	-11.0058
▁mini	-11.006
▁đệ	-11.0087
▁2,5	-11.0094
lụt	-11.0097
▁my	-11.0101
▁má	-11.0102
vào	-11.0109
▁chanh	-11.0112
chuộng	-11.0121
▁chiêm	-11.0128
-2011	-11.0152
▁http	-11.0156
▁1000	-11.0161
▁thỉnh	-11.0164
▁quyên	-11.0167
▁ghen	-11.017
▁sir	-11.018
-2012	-11.0186
▁hp	-11.0187
▁web	-11.0202
▁dãy	-11.0209
vã	-11.0214
▁everton	-11.022
▁el	-11.022
▁mưu	-11.0224
ne	-11.0232
cỡ	-11.0241
quyên	-11.0271
▁west	-11.0284
▁vóc	-11.0286
17	-11.0289
ong	-11.0291
▁khái	-11.0294
▁ghé	-11.0297
▁cáp	-11.0304
phút	-11.0305
▁1992	-11.0312
hiếm	-11.0312
▁hd	-11.0319
▁thềm	-11.032
▁50.000	-11.0336
bạn	-11.0337
▁and	-11.0339
▁hollywood	-11.035
bách	-11.0354
obama	-11.0357
gắt	-11.036
▁49	-11.0365
▁thoái	-11.0371
cam	-11.0373
▁30.000	-11.0383
▁rét	-11.0384
▁kép	-11.0386
▁acb	-11.0399
▁tn	-11.0401
lăng	-11.0401
đỉnh	-11.0404
▁bỏng	-11.0407
tuy	-11.0408
▁dã	-11.0408
▁ct	-11.0421
▁ngũ	-11.0424
vy	-11.0425
tên	-11.0435
▁1-1	-11.0454
▁90%	-11.0454
▁thoáng	-11.0456
kiên	-11.047
dư	-11.0477
▁15%	-11.0509
▁gdvn	-11.0523
▁đựng	-11.0524
giềng	-11.0526
ngang	-11.0527
tan	-11.0529
▁đính	-11.0534
▁hoãn	-11.0536
xỉ	-11.0539
nhơn	-11.0547
▁set	-11.056
hôi	-11.0582
ing	-11.0589
▁ngoan	-11.0592
▁63	-11.0594
▁tq	-11.0597
đắp	-11.0602
▁đb	-11.0608
en	-11.0621
▁phượng	-11.0623
▁phu	-11.0624
▁quái	-11.0625
▁oscar	-11.0625
▁hoan	-11.0628
min	-11.0629
▁nhường	-11.063
▁ng	-11.0632
thoái	-11.0642
▁ngâm	-11.0643
cột	-11.0647
▁kon	-11.065
▁mttq	-11.0651
ốc	-11.0656
rơi	-11.0658
▁vh	-11.067
▁men	-11.0674
▁slna	-11.0679
▁diệt	-11.07
▁ram	-11.0701
▁200.000	-11.0702
rập	-11.0722
alex	-11.0722
▁nhát	-11.0724
al	-11.0729
đôi	-11.0731
▁04	-11.0731
dối	-11.0732
▁pccc	-11.0743
tiểu	-11.0748
▁gác	-11.0748
▁luồng	-11.0749
▁w	-11.0751
▁intel	-11.0755
▁tò	-11.0755
▁đạp	-11.0759
▁mạo	-11.0766
▁twitter	-11.0767
▁tra	-11.0774
nã	-11.0782
dữ	-11.0788
thứ	-11.0793
▁ios	-11.0794
▁hn	-11.0813
▁giếng	-11.082
▁tê	-11.0822
▁tống	-11.0829
▁chủng	-11.0838
▁iii	-11.0849
▁neymar	-11.0855
dã	-11.0863
▁nho	-11.0866
▁ti	-11.0868
▁gam	-11.0868
lưỡng	-11.0871
▁khiêm	-11.0875
▁cồn	-11.0886
tươi	-11.0888
▁thù	-11.0894
rệt	-11.0895
▁nát	-11.0896
▁đế	-11.0906
▁fifa	-11.0917
▁đùa	-11.0922
▁gb	-11.0931
chia	-11.0933
▁james	-11.0942
chiếm	-11.0956
ấm	-11.0957
cờ	-11.1002
▁ngưng	-11.1003
▁bùn	-11.1007
so	-11.1022
▁2002	-11.1023
▁www	-11.1024
▁1,2	-11.1041
▁cắn	-11.1046
▁lõi	-11.105
-1	-11.1051
phu	-11.1054
▁kỉ	-11.1058
▁nâu	-11.1073
▁zing	-11.1085
no	-11.1085
gặp	-11.1088
▁500.000	-11.1093
▁dẫu	-11.1094
▁ngài	-11.1095
mù	-11.1114
▁bđbp	-11.1136
▁vạch	-11.1137
▁rò	-11.1143
ngôi	-11.1145
▁2-3	-11.1153
▁laptop	-11.1163
▁ngỡ	-11.1164
munich	-11.1169
hổ	-11.1171
▁cốc	-11.1177
màn	-11.1177
go	-11.1186
▁bàng	-11.1212
▁56	-11.1215
giãn	-11.122
▁cửu	-11.1226
rỉ	-11.123
họ	-11.127
▁chen	-11.1273
▁tao	-11.1278
▁72	-11.1284
▁bong	-11.1286
giàu	-11.1287
trọ	-11.1297
đắn	-11.1303
ở	-11.1304
mm	-11.1311
▁dở	-11.1315
times	-11.1317
đoan	-11.132
▁psg	-11.1324
▁cò	-11.1328
miệng	-11.1328
young	-11.1328
canh	-11.1331
bank	-11.1336
▁điêu	-11.1351
▁thắp	-11.1353
▁mì	-11.1353
▁thọ	-11.1372
▁lầu	-11.1374
▁60%	-11.1382
▁tàng	-11.1386
▁jose	-11.1393
▁đè	-11.1396
bội	-11.1407
triệu	-11.1413
▁đbscl	-11.1417
▁chóng	-11.1418
thục	-11.1421
▁hẹp	-11.1426
▁út	-11.1427
▁vây	-11.1428
túng	-11.143
thuần	-11.1431
▁ê	-11.1434
▁mịn	-11.1437
▁rùa	-11.1443
▁le	-11.1452
▁08	-11.1453
▁mãn	-11.1454
ngọt	-11.1455
ronaldo	-11.1458
▁thạc	-11.1471
▁móc	-11.1479
▁ptnt	-11.1488
▁bot	-11.1515
viễn	-11.1527
▁vịt	-11.1532
▁tui	-11.1539
▁chuông	-11.155
xát	-11.155
manh	-11.1553
21	-11.1556
▁se	-11.156
dày	-11.1567
▁vứt	-11.157
▁palestine	-11.1581
▁wenger	-11.1582
▁ngất	-11.1587
▁huân	-11.1592
hạt	-11.1596
dạn	-11.1602
▁los	-11.1606
▁ceo	-11.1613
▁tả	-11.1614
▁tựa	-11.1615
▁ngu	-11.1625
▁paul	-11.1626
▁53	-11.1627
đo	-11.1627
▁sex	-11.1646
dưng	-11.1647
▁nhạt	-11.1657
▁quế	-11.1661
▁me	-11.1682
▁thèm	-11.1704
▁barack	-11.1712
ào	-11.1714
trump	-11.1723
▁cuồng	-11.1729
▁62	-11.1731
▁mh	-11.1732
on	-11.1733
tum	-11.1736
▁sành	-11.1738
▁khang	-11.1741
▁sv	-11.1743
tốn	-11.1757
chạy	-11.1764
luỹ	-11.1768
▁super	-11.1774
▁neo	-11.1777
▁1-0	-11.1811
van	-11.1815
ren	-11.1815
se	-11.1819
nhóm	-11.1837
▁ni	-11.1843
▁bại	-11.1846
▁4.000	-11.1852
góc	-11.1853
hiếp	-11.1853
đậu	-11.1853
sút	-11.186
kháng	-11.1861
▁2001	-11.1864
ko	-11.187
đọng	-11.1873
▁lưỡi	-11.1875
q	-11.1879
j	-11.1882
khanh	-11.1887
▁ko	-11.189
▁lí	-11.189
▁donald	-11.1892
▁as	-11.1897
▁67	-11.1897
▁duyệt	-11.1899
vây	-11.191
▁ctck	-11.1915
ngập	-11.1917
▁lau	-11.192
▁trúc	-11.1921
chép	-11.1931
▁57	-11.1938
cát	-11.1948
đạc	-11.1952
mộng	-11.1954
phone	-11.1956
▁hagl	-11.1962
▁hôi	-11.1987
▁cành	-11.1988
the	-11.1989
▁trăn	-11.199
lắk	-11.1992
kia	-11.1994
▁khuất	-11.1998
▁thiêng	-11.2007
▁tĩnh	-11.2009
▁lầm	-11.2024
bối	-11.2032
▁nlđo	-11.2039
▁xám	-11.2039
▁dại	-11.2059
▁cám	-11.2064
đắc	-11.2073
▁ngần	-11.2075
▁nốt	-11.2081
nở	-11.2111
▁quét	-11.2133
chu	-11.2135
hiển	-11.2147
▁xơ	-11.2148
gắn	-11.2148
▁vnpt	-11.2155
vỡ	-11.2191
▁kiệt	-11.2195
▁ả	-11.2202
▁buồng	-11.2211
-2010	-11.2213
lận	-11.2218
▁nadal	-11.2221
▁85	-11.2223
▁bắp	-11.2223
▁1.500	-11.2224
siêu	-11.2233
nỗi	-11.2235
thô	-11.2241
▁chua	-11.2243
▁rạch	-11.2247
va	-11.225
▁mtv	-11.2253
▁bẫy	-11.2257
chấn	-11.2277
▁vấp	-11.2281
▁điệp	-11.2283
cho	-11.2283
bậc	-11.2294
xắn	-11.2296
oanh	-11.2299
▁nhặt	-11.2299
▁uyên	-11.2318
-2013	-11.2326
▁serie	-11.2326
nghiệt	-11.2327
▁ford	-11.2346
▁nứt	-11.2352
▁california	-11.2353
▁hạm	-11.2354
▁am	-11.2359
▁hiếp	-11.2366
▁youtube	-11.2367
▁wi	-11.2368
th	-11.2375
▁chìa	-11.2376
▁ớt	-11.2378
▁mr	-11.2384
đặn	-11.2385
news	-11.2388
▁lột	-11.2388
▁lướt	-11.2409
cháu	-11.241
▁bích	-11.2418
▁roma	-11.242
▁tụt	-11.2429
trộn	-11.2433
▁chèo	-11.244
▁cand	-11.244
▁đèo	-11.244
▁seoul	-11.244
phấn	-11.246
▁hnm	-11.2471
▁trăng	-11.2482
▁58	-11.2489
▁golf	-11.2498
hận	-11.2502
▁cr	-11.2504
kỹ	-11.2506
đập	-11.2508
lũ	-11.2518
tổng	-11.2534
bo	-11.2539
▁sạc	-11.254
▁doạ	-11.2567
▁nới	-11.2571
đốt	-11.2593
▁lặp	-11.2595
hoi	-11.2599
▁tpo	-11.2606
▁cuba	-11.2606
ôm	-11.2611
▁ngẫu	-11.2613
airlines	-11.2614
▁chui	-11.2618
▁gối	-11.2625
▁lát	-11.2626
▁nhung	-11.2631
mỏ	-11.2633
súc	-11.2635
▁qatar	-11.2638
hấp	-11.2645
▁tivi	-11.2653
luôn	-11.2656
thiếu	-11.2658
▁sụp	-11.2671
▁03	-11.2678
▁lót	-11.2678
gói	-11.2678
nguyệt	-11.2684
idol	-11.2698
▁rao	-11.2706
▁rong	-11.2716
▁chiết	-11.2721
ham	-11.273
▁fed	-11.2737
gom	-11.2737
▁đệm	-11.2738
▁tia	-11.2743
▁st	-11.2747
nhẫn	-11.275
▁đắp	-11.2754
béo	-11.2758
▁gốm	-11.2779
▁thác	-11.2781
ống	-11.279
,2%	-11.2796
▁ka	-11.2799
▁lung	-11.2801
hoang	-11.2815
lô	-11.2819
▁jong	-11.282
▁cúng	-11.2824
▁cu	-11.2829
▁valencia	-11.2835
▁hảo	-11.2836
si	-11.284
▁len	-11.2842
bảy	-11.2842
▁chinhphu	-11.285
▁diễm	-11.2855
▁110	-11.2863
▁tr	-11.2864
▁mark	-11.2866
tròn	-11.2869
▁chúa	-11.2886
đế	-11.2892
soạn	-11.2893
đ	-11.2902
▁soi	-11.2904
giấu	-11.2908
nh	-11.2914
hô	-11.2918
▁bưởi	-11.294
▁dl	-11.2941
▁xăm	-11.2941
▁nđt	-11.2943
mùa	-11.295
sài	-11.295
xưởng	-11.2954
bê	-11.2957
ton	-11.2959
▁25%	-11.2972
▁vọt	-11.2977
▁venezuela	-11.2978
▁one	-11.2978
▁mercedes	-11.2979
▁68	-11.2981
ráp	-11.2999
▁robert	-11.3004
▁lộng	-11.3012
hộp	-11.3014
pu	-11.3044
hd	-11.3065
tìm	-11.3068
▁phô	-11.3079
▁lốp	-11.3079
▁kiev	-11.3084
▁loan	-11.309
▁xích	-11.3091
quét	-11.3096
▁niên	-11.3101
sàn	-11.3108
▁xí	-11.3116
▁nghịch	-11.3117
▁jennifer	-11.3124
▁gieo	-11.3126
▁cỗ	-11.3126
▁nương	-11.313
▁kẹt	-11.3147
/2017	-11.3147
▁quầy	-11.3152
te	-11.3166
thầm	-11.3166
▁êm	-11.3172
▁vietinbank	-11.3178
mo	-11.3181
▁lệch	-11.3182
ủi	-11.3189
▁bangkok	-11.3193
cải	-11.3197
rể	-11.3198
▁bôi	-11.3201
phổ	-11.3205
cự	-11.321
▁lường	-11.3211
san	-11.3212
es	-11.3215
sốt	-11.3235
xi	-11.3235
▁chắn	-11.3238
one	-11.3241
▁big	-11.325
huỳnh	-11.3257
▁bmw	-11.3269
▁cháo	-11.3272
sẽ	-11.3275
thấp	-11.3281
▁oz	-11.3291
▁61	-11.3302
▁choáng	-11.3309
▁59	-11.331
táng	-11.3319
▁mồi	-11.3321
tấu	-11.3323
nát	-11.3323
treo	-11.3323
▁giãn	-11.3325
▁ập	-11.3325
▁3,5	-11.3329
▁bìa	-11.3331
▁tớ	-11.3336
hài	-11.3336
,9%	-11.3337
50	-11.3337
cười	-11.334
hy	-11.3352
▁atgt	-11.3355
▁tem	-11.3372
mail	-11.3374
▁gầm	-11.3375
hàn	-11.3383
▁66	-11.3386
▁trì	-11.3419
▁blackberry	-11.3444
▁trữ	-11.3458
▁bo	-11.3466
▁1994	-11.3468
▁1993	-11.3473
và	-11.3478
▁bbc	-11.348
▁nsưt	-11.3491
▁khoang	-11.3497
lựa	-11.3497
▁usb	-11.3501
▁300.000	-11.3502
▁màng	-11.3503
▁1/3	-11.3506
gạo	-11.3509
▁1995	-11.351
cẩm	-11.3514
gi	-11.3521
▁led	-11.3522
▁vietnamnet	-11.3522
khiếp	-11.3524
lội	-11.3525
pha	-11.3526
gà	-11.3536
▁siết	-11.3546
tặc	-11.3547
▁gầy	-11.3548
▁pop	-11.3569
thở	-11.357
ed	-11.3571
▁tràng	-11.3576
▁thon	-11.3577
tha	-11.3581
▁phà	-11.3589
võ	-11.3591
▁festival	-11.3596
▁federer	-11.3602
▁thìa	-11.3603
rộ	-11.3604
▁vắc	-11.3608
uy	-11.3613
▁victoria	-11.3619
▁phiền	-11.3632
dỗ	-11.3635
nhạt	-11.3637
▁lơ	-11.364
bếp	-11.3655
▁háo	-11.3656
▁..."	-11.3667
che	-11.3671
▁thuật	-11.3675
▁tưới	-11.3675
▁hé	-11.3686
ngàng	-11.3689
vốn	-11.3691
▁1991	-11.3692
châm	-11.3699
pro	-11.3705
▁nén	-11.3706
▁tóm	-11.3707
▁mùng	-11.3709
gối	-11.3713
▁dông	-11.3717
▁thiêu	-11.3718
▁ngậm	-11.3736
▁mt	-11.3772
▁ván	-11.3786
el	-11.3787
▁bè	-11.379
▁tngt	-11.3793
▁tom	-11.3802
chú	-11.3806
▁nắp	-11.3816
zealand	-11.3819
thám	-11.382
nghiện	-11.3821
▁nv	-11.3822
▁apec	-11.3824
táo	-11.3828
▁khuya	-11.383
lối	-11.3832
vượng	-11.3833
ranh	-11.3835
▁69	-11.3839
▁si	-11.3839
▁sườn	-11.3842
lánh	-11.3849
▁diễu	-11.3854
▁cưng	-11.3861
12	-11.3863
lỏng	-11.3864
▁vu	-11.3866
phím	-11.3867
▁rớt	-11.387
▁ái	-11.3875
fa	-11.3876
▁sam	-11.3883
▁nhánh	-11.3887
▁vú	-11.3889
▁khía	-11.3893
▁nhỉ	-11.3895
▁bidv	-11.3908
▁chdcnd	-11.391
dào	-11.3915
▁cong	-11.3916
persie	-11.3918
nạ	-11.3921
biện	-11.3923
▁bực	-11.3927
lãng	-11.393
▁dortmund	-11.3945
bridge	-11.3948
đâu	-11.3954
hoạn	-11.3957
ạt	-11.3959
▁tốp	-11.397
villa	-11.3981
▁lén	-11.3982
▁gu	-11.399
▁muôn	-11.3993
▁tước	-11.4005
▁kề	-11.4009
▁180	-11.4014
▁bún	-11.4019
▁ben	-11.4021
land	-11.4023
▁uốn	-11.4058
▁ktđt	-11.4063
▁chuồng	-11.4066
bác	-11.4073
não	-11.4075
uyên	-11.4083
▁1999	-11.4107
mourinho	-11.4111
▁dắt	-11.4135
lẫn	-11.4141
▁tỏi	-11.4141
▁lđlđ	-11.4144
blues	-11.4153
st	-11.4158
▁ls	-11.4159
▁900	-11.4165
▁1%	-11.4166
▁xót	-11.4168
▁1982	-11.4179
hân	-11.4181
quảng	-11.4182
▁350	-11.4182
chữ	-11.4185
▁tà	-11.4188
▁daily	-11.4193
sau	-11.4203
lẫy	-11.4209
▁chile	-11.4212
▁ồ	-11.4216
▁girl	-11.4218
▁đò	-11.4225
▁phì	-11.4234
sun	-11.4238
voice	-11.4244
▁vladimir	-11.4245
il	-11.4251
-2017	-11.4256
▁kienthuc	-11.4256
▁ttck	-11.4261
▁radar	-11.4265
re	-11.4265
▁thầm	-11.4269
bầu	-11.4271
world	-11.4272
▁nôn	-11.4278
▁chén	-11.4285
▁chốn	-11.4286
▁mâm	-11.4293
:	-11.4301
▁đúc	-11.4304
▁đun	-11.4306
top	-11.4307
lông	-11.4308
▁ghét	-11.4309
tv	-11.4317
mươi	-11.4318
hung	-11.433
▁lọ	-11.4333
▁bóc	-11.4335
▁hẻm	-11.4335
hái	-11.4338
túi	-11.4342
▁re	-11.4357
▁gõ	-11.4361
▁tưng	-11.4363
▁gấu	-11.4365
▁71	-11.4369
▁iv	-11.4369
▁nhăn	-11.4373
nghênh	-11.4379
▁robot	-11.4385
▁kí	-11.4389
▁84	-11.4392
▁nd	-11.4393
▁unesco	-11.4401
▁diego	-11.4401
tiếc	-11.441
hức	-11.4411
▁xk	-11.4412
▁xì	-11.4414
▁triết	-11.4414
sông	-11.443
▁alex	-11.4439
suốt	-11.446
▁lu	-11.4461
▁crimea	-11.4465
sáu	-11.4465
nét	-11.4472
▁xoắn	-11.4473
▁cpi	-11.4478
1%	-11.4483
▁aids	-11.4483
▁văng	-11.4494
thịt	-11.4495
▁đtqg	-11.4503
ngàn	-11.4509
▁lụt	-11.4515
rác	-11.4526
▁sếp	-11.453
rẫy	-11.4533
đói	-11.4554
chứa	-11.4557
chinh	-11.4562
▁vớt	-11.4567
bọn	-11.457
▁vs	-11.4578
mì	-11.4581
▁vỗ	-11.4588
tôn	-11.46
qu	-11.4601
tầm	-11.4601
▁1998	-11.4603
▁gậy	-11.4604
▁đúp	-11.4611
os	-11.4612
▁1980	-11.4619
▁83	-11.4644
▁châm	-11.4651
▁rẽ	-11.4659
lân	-11.4661
mổ	-11.4665
▁mobifone	-11.4666
▁khiếm	-11.4673
▁manh	-11.4679
▁3-1	-11.468
▁1997	-11.4682
▁gặt	-11.4684
▁đôn	-11.4693
khang	-11.4698
▁xoáy	-11.4699
▁xoa	-11.4706
▁nạp	-11.4707
▁kẹo	-11.4711
▁grand	-11.4713
▁xấp	-11.4724
▁chọc	-11.4725
▁điếu	-11.4728
▁pro	-11.473
thòi	-11.473
thánh	-11.4735
vượt	-11.4743
khoáng	-11.4755
▁09	-11.4756
▁bứt	-11.4774
▁phím	-11.4776
▁77	-11.4788
▁gót	-11.4791
tứ	-11.4803
▁bá	-11.4808
▁sắm	-11.4808
▁atm	-11.4823
▁rock	-11.4824
▁xen	-11.4832
▁luỹ	-11.4844
súng	-11.4847
▁1989	-11.4848
▁bin	-11.4849
▁suýt	-11.486
cong	-11.4862
tháo	-11.4862
▁run	-11.4862
▁rách	-11.4871
▁xách	-11.4877
trục	-11.4879
dở	-11.4896
▁gom	-11.4906
▁nòng	-11.4918
▁dồi	-11.492
▁1988	-11.4926
park	-11.4927
▁vnmedia	-11.4928
▁phở	-11.4935
▁viếng	-11.4943
▁blog	-11.4944
▁oanh	-11.4949
vết	-11.495
khiết	-11.4954
màng	-11.4958
-2009	-11.4959
▁130	-11.4959
▁gạt	-11.496
răng	-11.4962
angeles	-11.4964
trước	-11.4966
vua	-11.497
▁88	-11.4981
▁ưng	-11.4983
▁huệ	-11.4985
rồng	-11.4988
▁thửa	-11.4992
▁vck	-11.4993
▁xào	-11.4994
▁2%	-11.4995
▁cọ	-11.4996
▁đùi	-11.4998
▁tw	-11.4999
▁quách	-11.5007
▁mộng	-11.503
▁dnnn	-11.5049
▁heroin	-11.5057
us	-11.5061
▁vòi	-11.5071
▁đếm	-11.5074
lưng	-11.5075
thí	-11.5085
▁colombia	-11.5093
▁đtck	-11.5096
ruột	-11.5101
lui	-11.5102
▁lún	-11.5102
▁79	-11.5109
▁1996	-11.5112
▁file	-11.5115
vĩ	-11.5115
▁1,3	-11.5124
▁1975	-11.5124
▁6.000	-11.5138
po	-11.5139
▁bồng	-11.5139
▁lội	-11.5141
vô	-11.5141
18	-11.5149
nhịp	-11.5153
tắm	-11.5154
hyun	-11.5154
truyện	-11.5157
▁cristiano	-11.5161
▁del	-11.5172
▁vietcombank	-11.5174
đẻ	-11.5183
▁justin	-11.5184
xương	-11.5188
milan	-11.519
▁bồn	-11.5193
▁81	-11.52
▁gìn	-11.5207
▁nhôm	-11.5209
liễu	-11.5216
ve	-11.523
▁76	-11.5231
bin	-11.525
▁nọ	-11.5252
▁vùi	-11.5257
▁series	-11.5264
▁lumia	-11.5293
▁nguyệt	-11.5306
ya	-11.5307
lee	-11.5308
diễm	-11.5325
sướng	-11.5325
14	-11.5341
giảng	-11.535
▁bóp	-11.5352
▁bơ	-11.5367
▁sưng	-11.5374
▁lẻ	-11.5374
thuê	-11.5377
-2014	-11.5389
▁hit	-11.5389
ii	-11.5393
up	-11.5398
▁73	-11.5404
6%	-11.5405
▁mốt	-11.5407
is	-11.5407
▁noel	-11.5408
▁đkvđ	-11.5409
▁đăk	-11.5413
xứng	-11.542
tb	-11.5421
▁nhái	-11.5422
ttg	-11.5431
đạm	-11.5432
▁chùm	-11.5436
▁1986	-11.5436
▁bikini	-11.5437
quát	-11.5439
vắng	-11.5447
▁mb	-11.546
▁đbqh	-11.5466
triệt	-11.5469
bọc	-11.5474
liêng	-11.5481
▁tạt	-11.5481
▁74	-11.5482
ja	-11.5483
▁búp	-11.5484
vấp	-11.549
▁hái	-11.5512
▁nsnd	-11.5515
▁sừng	-11.5522
▁pep	-11.5526
▁15.000	-11.5526
▁harry	-11.5526
ngô	-11.5532
kí	-11.5538
▁keo	-11.5545
▁86	-11.5545
▁ukraina	-11.5558
bụng	-11.5559
▁hóc	-11.5561
▁lụa	-11.5562
▁bú	-11.5565
xôi	-11.5566
chay	-11.5569
▁bội	-11.5577
▁:1	-11.5579
▁78	-11.5582
thuế	-11.5588
▁imf	-11.5591
▁bernabeu	-11.5593
▁cấy	-11.5608
3%	-11.5614
ghép	-11.5619
▁tablet	-11.5626
▁loạn	-11.5627
nuối	-11.5637
▁quạt	-11.5645
cúng	-11.5646
▁fc	-11.5647
▁lúng	-11.5658
-2015	-11.5664
▁vpf	-11.5667
▁vách	-11.5672
▁05	-11.5672
ngắn	-11.568
▁ong	-11.5684
hàm	-11.57
▁ea	-11.5701
▁gđ	-11.5705
▁82	-11.5709
group	-11.5711
▁kiêu	-11.5713
▁2.0	-11.5723
▁dỡ	-11.575
▁40.000	-11.5753
trộm	-11.5758
quế	-11.5758
▁đục	-11.5759
mẫn	-11.5762
▁go	-11.5762
16	-11.5763
khoác	-11.5763
khả	-11.5767
putin	-11.5771
jin	-11.5772
▁%	-11.5773
▁lhp	-11.5775
▁rước	-11.5776
▁sacombank	-11.579
▁3-0	-11.5793
▁you	-11.5804
▁steve	-11.5806
▁oda	-11.5809
▁đạm	-11.5814
▁uruguay	-11.5814
▁xay	-11.5824
phan	-11.5827
▁răn	-11.5831
▁ngoạn	-11.5832
▁chợt	-11.5833
bãi	-11.5835
đùa	-11.5838
▁hq	-11.5841
▁chậu	-11.5844
ẩm	-11.585
▁lộn	-11.5864
cha	-11.5866
nan	-11.5877
▁miệt	-11.5879
▁angela	-11.5879
▁nuốt	-11.5883
▁ghê	-11.5883
camp	-11.59
đúc	-11.5902
▁ssi	-11.5906
be	-11.5907
▁napoli	-11.5918
▁viền	-11.5921
côi	-11.5925
40	-11.5925
▁nhức	-11.5934
▁axit	-11.5935
▁boeing	-11.5937
▁ngây	-11.5937
tơ	-11.5942
chúc	-11.5953
▁vksnd	-11.5953
▁tbktsg	-11.5959
star	-11.5959
tạng	-11.5962
-2	-11.5963
▁sánh	-11.5971
▁92	-11.5971
▁gen	-11.5977
▁han	-11.5985
đuối	-11.5986
mp	-11.5993
▁nạo	-11.5996
post	-11.5997
▁thước	-11.6
▁juve	-11.6004
oai	-11.6004
khao	-11.6009
▁rụng	-11.6011
hee	-11.6014
hẳn	-11.6016
▁nude	-11.6033
▁aston	-11.6035
▁khoái	-11.6043
11	-11.6043
rô	-11.6047
▁sướng	-11.6049
vườn	-11.6051
▁3%	-11.6052
bắn	-11.6057
▁nxb	-11.606
▁giặc	-11.6061
▁tẩu	-11.6062
▁dai	-11.607
jones	-11.6071
ru	-11.6073
xưng	-11.6077
▁audi	-11.6077
▁air	-11.6087
▁gai	-11.6088
▁karaoke	-11.6088
gan	-11.6091
▁mến	-11.6091
cáp	-11.6092
han	-11.6092
▁ướt	-11.6105
dành	-11.6106
vietnam	-11.6115
za	-11.6119
nộ	-11.612
▁luộc	-11.6121
▁flash	-11.6124
ray	-11.6132
bàng	-11.6132
cc	-11.6136
▁rầm	-11.6137
▁george	-11.614
▁vặt	-11.6144
▁diệu	-11.6147
▁kìm	-11.6154
▁125	-11.6164
▁lốc	-11.6179
▁khao	-11.6183
▁ranh	-11.6201
▁ntk	-11.6206
miên	-11.6213
▁phiêu	-11.6214
▁bxh	-11.6217
kín	-11.6229
▁oxy	-11.6231
messi	-11.6233
▁balotelli	-11.6241
▁scotland	-11.6247
▁đắng	-11.6249
mòn	-11.6257
mài	-11.627
▁nhược	-11.6271
▁mượt	-11.6277
▁torres	-11.6279
tám	-11.6283
▁mp	-11.6287
▁đắm	-11.6295
▁1987	-11.6297
chết	-11.63
▁mau	-11.6302
▁rể	-11.6304
▁nick	-11.6313
dẹp	-11.6313
▁khoả	-11.6314
ran	-11.6317
maria	-11.6317
▁quỳ	-11.6317
▁khích	-11.6318
▁luis	-11.6319
cân	-11.6327
▁ri	-11.633
▁họng	-11.6341
dạ	-11.6344
▁ướp	-11.6344
▁chót	-11.6346
múa	-11.6351
▁140	-11.6357
mày	-11.6358
▁gừng	-11.6358
4%	-11.636
▁khốn	-11.6361
▁phụng	-11.6362
ỏi	-11.6363
cuốn	-11.6375
seo	-11.6376
▁bitcoin	-11.6377
thép	-11.638
cắt	-11.6387
out	-11.6388
▁tí	-11.6405
-35	-11.6405
gửi	-11.6407
▁pvn	-11.6408
▁nhọn	-11.6418
rắn	-11.6419
▁87	-11.6422
gọn	-11.6427
at	-11.6432
▁giằng	-11.6432
dưới	-11.6433
▁ntm	-11.6436
ơ	-11.6436
▁3-4	-11.6459
▁160	-11.648
▁phàn	-11.6482
mắm	-11.6484
▁thạnh	-11.6485
▁tá	-11.6486
▁suarez	-11.6493
▁đốc	-11.6496
đôn	-11.6504
▁tật	-11.6511
▁thốt	-11.6519
▁1.200	-11.6521
▁newcastle	-11.6535
▁be	-11.6535
luồng	-11.6544
▁hụt	-11.6546
▁xẻ	-11.6549
▁protein	-11.6558
dong	-11.6569
▁costa	-11.6578
ngặt	-11.6579
▁dặn	-11.6584
▁gaddafi	-11.659
lường	-11.6602
▁sun	-11.6602
won	-11.6614
▁vắt	-11.6615
▁sọ	-11.6618
▁tmcp	-11.6628
▁sắn	-11.6629
phiền	-11.6636
▁sẹo	-11.6637
▁1,6	-11.6637
▁99	-11.6638
đe	-11.6643
▁play	-11.6653
cà	-11.6654
mưa	-11.6667
hao	-11.6678
▁khốc	-11.6685
bút	-11.6685
▁hen	-11.6686
bát	-11.6686
▁râu	-11.6695
▁thoa	-11.6696
lính	-11.67
-19	-11.67
ce	-11.6707
khe	-11.6715
khiếu	-11.672
▁khan	-11.6729
▁wb	-11.6743
▁giã	-11.675
moyes	-11.6753
▁kha	-11.6756
as	-11.6774
thoáng	-11.6782
mờ	-11.6789
ngoan	-11.6795
▁nhã	-11.6806
▁7%	-11.6808
model	-11.681
quay	-11.6812
ke	-11.6814
▁1985	-11.6819
▁ph	-11.682
kíp	-11.6826
▁nể	-11.6829
ferguson	-11.6833
▁daniel	-11.6841
▁stamford	-11.6842
▁chớp	-11.6843
▁2030	-11.6843
▁nou	-11.6843
trán	-11.6847
▁chiên	-11.6852
mí	-11.6854
nhẹ	-11.6855
▁diệp	-11.6859
▁trễ	-11.686
thả	-11.6867
▁náo	-11.6868
dỡ	-11.6869
▁rio	-11.687
▁đấm	-11.6874
▁12%	-11.6876
bia	-11.6878
xuôi	-11.6879
▁nô	-11.6882
▁nhộn	-11.6882
▁vuông	-11.6883
-3	-11.6883
▁bịt	-11.6885
▁nhậm	-11.6891
út	-11.6894
▁măng	-11.6897
▁pixel	-11.6898
kẹt	-11.69
▁rưỡi	-11.6906
lò	-11.6908
▁nghẹn	-11.6922
▁89	-11.6926
▁06	-11.6927
id	-11.693
▁dò	-11.6934
móng	-11.6935
▁quấn	-11.6939
▁ghz	-11.6947
▁vy	-11.6957
luân	-11.6963
▁djokovic	-11.697
▁emirates	-11.697
▁kate	-11.6977
air	-11.6985
hổng	-11.6993
▁ách	-11.6999
trâm	-11.7001
▁hông	-11.7003
voi	-11.7014
thốn	-11.7026
lắp	-11.7035
▁logo	-11.7041
lanh	-11.7043
▁mác	-11.7051
▁muỗi	-11.7052
tràng	-11.7062
▁tráng	-11.7063
▁taliban	-11.7068
▁giòn	-11.707
▁chì	-11.7071
▁tị	-11.7072
▁amazon	-11.7073
hang	-11.7076
www	-11.7078
▁né	-11.708
▁jang	-11.7094
▁thêu	-11.7102
▁bạt	-11.7104
▁nm	-11.7106
nhị	-11.7107
câu	-11.7117
▁vic	-11.7119
▁marketing	-11.712
▁kè	-11.7128
▁full	-11.7129
ley	-11.7136
xướng	-11.7138
đều	-11.7145
▁khương	-11.7158
▁quyển	-11.717
đau	-11.7174
lấp	-11.7177
▁peter	-11.7182
mũi	-11.7187
ngựa	-11.7203
▁dụ	-11.7204
bừng	-11.7206
trắc	-11.7222
▁megapixel	-11.7231
▁bẩm	-11.7234
qaeda	-11.7236
▁sunderland	-11.7245
▁mải	-11.7248
▁ế	-11.7251
▁xé	-11.726
▁sào	-11.7275
▁ức	-11.7277
▁nan	-11.7283
▁lở	-11.7292
▁cnn	-11.7294
it	-11.7294
bạ	-11.7294
▁ashley	-11.73
▁1,4	-11.7324
▁bẻ	-11.7324
▁nguội	-11.7325
▁yahoo	-11.7326
hoãn	-11.7335
▁quấy	-11.7338
▁ầm	-11.734
▁95	-11.7344
▁trút	-11.7348
▁rụi	-11.7354
vũng	-11.7363
▁blue	-11.7364
▁mạc	-11.7366
▁cia	-11.737
▁1,8	-11.7372
jong	-11.7382
▁lẩn	-11.7383
▁live	-11.7383
▁for	-11.739
ngùi	-11.7398
▁2/3	-11.7399
▁bale	-11.7402
oặt	-11.7402
▁ghe	-11.7406
▁4,5	-11.7408
▁miêu	-11.7409
▁tx	-11.7415
▁giadinhnet	-11.7416
▁sót	-11.7427
ber	-11.7431
▁sòng	-11.7433
▁tản	-11.744
lõi	-11.7441
▁mắng	-11.7448
▁madrid	-11.7461
▁tbn	-11.7474
lùi	-11.7478
▁nhơn	-11.7482
▁tụi	-11.7485
▁then	-11.7486
lúc	-11.7496
▁1/2	-11.7498
▁cù	-11.7499
▁thuở	-11.7506
quê	-11.7508
▁wall	-11.751
▁tấp	-11.751
7%	-11.7511
▁vinaphone	-11.7518
▁mạ	-11.752
▁sggp	-11.7523
bới	-11.7526
▁ngứa	-11.753
▁joe	-11.7535
ptnt	-11.7544
sữa	-11.7544
▁mac	-11.7546
▁trắc	-11.7552
miện	-11.756
bs	-11.7561
vòng	-11.7561
▁ngỏ	-11.7567
▁cuộn	-11.7575
bức	-11.7578
▁sỏi	-11.7585
▁981	-11.7588
khối	-11.7594
lão	-11.7598
mt	-11.7612
▁bệ	-11.7619
▁cúc	-11.762
▁vnđ	-11.7622
▁nhuộm	-11.7626
▁phẫn	-11.7633
▁chris	-11.7634
đèn	-11.7634
▁cớ	-11.7642
▁rạn	-11.7646
xh	-11.7648
▁115	-11.7652
▁1984	-11.7653
▁ngả	-11.7655
trệ	-11.7658
▁ru	-11.7662
▁6%	-11.7664
▁spa	-11.7669
▁thám	-11.7673
lin	-11.7677
▁450	-11.7684
▁mạn	-11.7688
▁xperia	-11.7697
ngạc	-11.7698
▁cqđt	-11.7706
▁sét	-11.7711
▁mít	-11.7711
óc	-11.7713
▁ích	-11.7718
▁khanh	-11.7719
▁wayne	-11.7723
bắp	-11.7733
tận	-11.7741
▁91	-11.7743
▁calisto	-11.7745
▁mãnh	-11.7748
▁nghiệm	-11.7749
woo	-11.7755
buồn	-11.7766
▁liễu	-11.7766
chai	-11.7768
▁nhtm	-11.777
▁sh	-11.7772
hở	-11.7772
▁vaccine	-11.7774
ar	-11.7781
25	-11.7788
▁cọc	-11.779
▁ráo	-11.7797
ci	-11.7802
▁dê	-11.7802
ah	-11.7805
xăng	-11.7809
▁louis	-11.7809
▁next	-11.7823
▁150.000	-11.7828
▁lều	-11.7828
▁hít	-11.7831
▁cào	-11.7839
▁derby	-11.7843
đỗ	-11.786
▁khâm	-11.7861
chào	-11.7882
xảo	-11.7885
▁mario	-11.7887
▁trơn	-11.7888
24	-11.7891
rã	-11.7902
▁đu	-11.7903
▁gươm	-11.7906
dọc	-11.7906
trãi	-11.791
▁mỳ	-11.7912
▁europa	-11.792
▁1/8	-11.792
tam	-11.7921
cn	-11.7922
rằng	-11.7926
▁thoại	-11.7929
vùng	-11.793
▁jack	-11.7931
vuông	-11.7932
note	-11.7937
▁7.000	-11.7941
▁khắt	-11.7942
▁giặt	-11.7951
đầy	-11.7953
▁kt	-11.7958
▁nêm	-11.7962
khải	-11.7965
▁xài	-11.7966
ngăn	-11.7995
▁gt	-11.8
▁rễ	-11.8001
▁massage	-11.8008
chuyên	-11.8018
ner	-11.8018
▁ve	-11.8026
tuần	-11.8029
13	-11.803
▁kwh	-11.8034
8%	-11.8035
▁túc	-11.8036
▁rảnh	-11.8039
▁thung	-11.8047
▁stress	-11.8054
khuê	-11.8055
▁taylor	-11.8063
▁chư	-11.8067
cấm	-11.8067
xít	-11.8068
▁aff	-11.8072
▁1970	-11.8073
dịu	-11.8086
▁vác	-11.8087
▁bọ	-11.8088
▁07	-11.8092
▁dấy	-11.8093
▁8.000	-11.8094
▁viet	-11.8099
▁mỉm	-11.81
▁tiin	-11.8102
▁séc	-11.8103
▁hyundai	-11.811
▁nhóc	-11.8114
chiểu	-11.8117
▁giơ	-11.8133
▁4.0	-11.8144
▁sâm	-11.8144
hye	-11.8148
gaal	-11.8153
▁thầu	-11.8156
▁8%	-11.816
quật	-11.816
▁kaka	-11.8166
hạm	-11.8179
sai	-11.8186
▁nigeria	-11.819
gàng	-11.8191
qđ	-11.8192
▁tát	-11.8196
bò	-11.8202
)	-11.8204
▁hân	-11.8205
đắng	-11.8206
▁sky	-11.8207
▁uss	-11.8221
▁cap	-11.8223
▁té	-11.8225
ven	-11.823
▁hãm	-11.8238
▁nq	-11.8241
▁mìn	-11.8252
▁thề	-11.8253
▁2-2	-11.8259
▁93	-11.8267
▁tdtt	-11.8267
quần	-11.8267
▁thắm	-11.8269
▁tpp	-11.8273
▁đẫm	-11.8273
▁chối	-11.8276
nghiêm	-11.8276
lũng	-11.8284
▁bill	-11.8287
▁sầm	-11.829
▁lừng	-11.8304
mobile	-11.8316
▁nến	-11.8326
nhủ	-11.833
▁rafael	-11.8335
▁hét	-11.8336
▁ẩu	-11.8342
▁khử	-11.8343
▁thâu	-11.8345
▁nhâm	-11.8349
vét	-11.8359
▁phác	-11.8363
▁vks	-11.8364
▁ictnews	-11.8366
thản	-11.8368
gen	-11.8368
▁hnmo	-11.8369
▁cẩu	-11.8372
dập	-11.8373
dinh	-11.8373
▁gpmb	-11.8377
▁mắm	-11.8381
▁1983	-11.8382
lào	-11.8389
▁who	-11.8389
▁william	-11.8398
▁fabregas	-11.8401
▁bch	-11.8411
▁quặng	-11.8416
▁khoanh	-11.8423
▁gi	-11.8425
▁dặm	-11.8438
,7%	-11.8439
▁2.500	-11.8445
▁ancelotti	-11.8447
▁getty	-11.8461
▁nhồi	-11.8462
der	-11.8466
▁nón	-11.8475
quỹ	-11.8475
▁martin	-11.8476
▁mix	-11.8477
trễ	-11.8481
▁đtdđ	-11.8486
▁trổ	-11.8492
mc	-11.8496
▁love	-11.8501
▁us	-11.8507
ngã	-11.8513
▁170	-11.8514
trăm	-11.8515
▁toát	-11.8517
▁saigon	-11.852
▁ia	-11.8521
phụng	-11.8523
nần	-11.8532
am	-11.8533
▁ràng	-11.8539
▁asus	-11.854
▁tro	-11.8542
ngà	-11.8549
▁xavi	-11.8565
▁metro	-11.8567
trặc	-11.857
▁dẻo	-11.8571
soo	-11.8583
▁kệ	-11.8587
mập	-11.8588
tràn	-11.8596
phản	-11.86
ubnd	-11.8601
▁kình	-11.8602
vàn	-11.8614
▁giò	-11.8614
,4%	-11.8617
vở	-11.8618
▁monaco	-11.8622
mỉ	-11.8624
▁0,5	-11.8628
▁ứ	-11.863
▁liêm	-11.8634
▁chập	-11.8639
▁tehran	-11.864
▁dè	-11.8641
▁nóc	-11.8648
▁maria	-11.8651
▁trói	-11.8652
▁nhượng	-11.8657
▁360	-11.8658
thuột	-11.8662
or	-11.8663
▁canxi	-11.8665
▁kíp	-11.8674
đền	-11.8681
▁toa	-11.8684
▁assad	-11.8684
show	-11.8689
▁tơ	-11.8697
ghi	-11.8702
/2015	-11.8702
▁sàng	-11.8704
▁hăng	-11.8707
xích	-11.872
hầm	-11.8727
▁chảo	-11.8733
▁thomas	-11.874
cole	-11.8743
▁1/4	-11.8748
giấc	-11.875
▁1,7	-11.8755
▁senkaku	-11.8764
▁vá	-11.8766
▁lđbđ	-11.877
▁phẳng	-11.8783
▁ferguson	-11.8784
▁vinamilk	-11.8789
rooney	-11.8797
▁gv	-11.88
▁3-2	-11.8801
khương	-11.8802
▁hận	-11.8803
ny	-11.8804
cựu	-11.8805
xê	-11.881
▁blđ	-11.8823
▁terry	-11.8828
▁on	-11.8828
▁juan	-11.8828
▁đuối	-11.8836
off	-11.8844
▁sx	-11.8852
▁bluetooth	-11.8853
đĩa	-11.8853
đằng	-11.8862
trù	-11.8867
▁mo	-11.8867
▁chéo	-11.8871
▁gala	-11.8873
rét	-11.8874
▁vina	-11.8879
▁bầy	-11.8881
▁lựu	-11.8882
tho	-11.8888
▁mỏi	-11.8889
▁mậu	-11.889
▁cd	-11.8891
▁ar	-11.8891
▁đtvn	-11.8892
▁400.000	-11.8892
▁jo	-11.8899
rừng	-11.8902
quái	-11.8903
phiên	-11.8907
vẽ	-11.892
▁city	-11.8927
▁xạ	-11.8934
giò	-11.8935
họp	-11.894
▁rót	-11.8944
▁gắng	-11.8948
▁star	-11.8948
2%	-11.8952
▁trót	-11.8956
▁nếm	-11.8956
▁khải	-11.8962
▁home	-11.8963
online	-11.8977
bùi	-11.8981
▁core	-11.8981
cộ	-11.8983
▁xế	-11.8986
▁visa	-11.8988
▁day	-11.8992
mượn	-11.9002
▁afc	-11.9002
tới	-11.9005
▁wto	-11.9007
nhưng	-11.9014
mar	-11.9014
▁đàng	-11.9017
iii	-11.9021
▁rộn	-11.9023
▁xáo	-11.9023
cảng	-11.9028
▁mobile	-11.9029
▁ireland	-11.9037
mông	-11.9038
▁serbia	-11.904
▁stoke	-11.9045
tương	-11.9046
▁trèo	-11.9047
▁plus	-11.9048
pe	-11.905
▁lcd	-11.905
▁richard	-11.9053
sấu	-11.906
ter	-11.9061
▁sport	-11.9061
chở	-11.9067
rẽ	-11.907
▁chói	-11.9072
/2007	-11.9073
▁cưa	-11.9074
hán	-11.9076
cốc	-11.9079
▁vinashin	-11.9079
phỏng	-11.9082
▁4-5	-11.9087
▁gang	-11.9089
▁khỉ	-11.9097
chải	-11.9103
▁jean	-11.9103
9%	-11.9105
▁1979	-11.9109
kạn	-11.9112
▁trêu	-11.9116
▁mủ	-11.9129
▁nhốt	-11.9133
▁angelina	-11.9134
▁jordan	-11.9137
ủ	-11.914
▁rốt	-11.9144
▁nức	-11.915
bu	-11.9156
▁lionel	-11.9157
▁chững	-11.9157
▁hốt	-11.9161
▁bp	-11.9166
▁kẹp	-11.9168
▁chuộc	-11.9171
▁mancini	-11.9187
▁lười	-11.9187
▁ndđt	-11.9193
▁cồng	-11.9194
▁petrolimex	-11.9194
▁cày	-11.9195
▁gật	-11.9197
▁phen	-11.9198
▁sevilla	-11.9204
▁asiad	-11.9205
toạ	-11.9208
▁xiếc	-11.9215
▁gân	-11.9222
▁eximbank	-11.9229
▁vụn	-11.9231
▁up	-11.9233
núi	-11.9234
váy	-11.9234
▁lách	-11.9238
▁1.5	-11.9243
quyến	-11.9251
đến	-11.9253
▁it	-11.9256
▁thiền	-11.9262
▁vòm	-11.9264
▁1972	-11.9266
▁dang	-11.927
▁brad	-11.9271
▁xôi	-11.9275
▁hả	-11.9278
hlv	-11.9281
▁dẹp	-11.9282
▁sergio	-11.9283
lấn	-11.9284
nạp	-11.9285
cược	-11.9288
▁nhm	-11.9288
ia	-11.9305
bar	-11.9311
mu	-11.9324
lách	-11.9327
kè	-11.9333
5%	-11.9344
▁catwalk	-11.9345
▁bung	-11.9345
▁benzema	-11.9346
quá	-11.935
hi	-11.9351
▁at	-11.9356
dl	-11.9357
trùm	-11.9358
mong	-11.9362
▁diều	-11.9363
▁lady	-11.9368
ngọ	-11.9374
▁donetsk	-11.9375
▁ttvn	-11.9375
▁xua	-11.9376
▁chat	-11.9377
▁bừa	-11.9387
▁hò	-11.9393
-15	-11.9395
▁card	-11.9401
tham	-11.9403
▁bt	-11.9408
brom	-11.9408
▁quây	-11.9409
pin	-11.9423
▁60.000	-11.9428
▁105	-11.9435
▁rẫy	-11.9435
ớt	-11.9436
▁tịnh	-11.9438
ê	-11.9443
▁pr	-11.9443
▁bundesliga	-11.9446
hét	-11.9449
▁vuốt	-11.9454
tống	-11.9456
tựa	-11.9457
mart	-11.946
▁andy	-11.9461
▁hán	-11.9462
khoát	-11.9472
▁tel	-11.9479
đảng	-11.9481
▁phao	-11.9484
kẽ	-11.9485
nếp	-11.9485
huyện	-11.9497
hart	-11.9502
▁china	-11.9506
xộn	-11.9508
▁dvd	-11.9515
▁antt	-11.9516
chạp	-11.9522
▁quí	-11.953
lắc	-11.953
chìm	-11.9537
▁sp	-11.9537
▁điềm	-11.9539
▁xy	-11.9549
▁dục	-11.9549
▁saudi	-11.9553
rica	-11.9555
úng	-11.9558
sâm	-11.9566
▁dội	-11.9568
▁níu	-11.9572
▁showroom	-11.9572
▁red	-11.9584
▁4%	-11.9585
thắm	-11.9585
▁motorola	-11.9591
-20	-11.9597
▁1-3	-11.9602
ler	-11.9602
▁96	-11.9605
▁ria	-11.9611
hỉnh	-11.9616
▁jeans	-11.9616
▁qltt	-11.9616
▁ksnd	-11.962
ku	-11.962
▁rộ	-11.9631
▁giác	-11.9631
▁nk	-11.9643
▁uefa	-11.9644
mười	-11.9652
▁app	-11.9656
▁220	-11.9657
ml	-11.9661
▁smart	-11.9664
ngõ	-11.9671
▁ủ	-11.9673
nhìn	-11.9675
▁mép	-11.9677
cọc	-11.9684
buôn	-11.9697
▁nguoiduatin	-11.9699
▁ro	-11.9699
xí	-11.9699
▁fbi	-11.9704
▁tua	-11.971
kh	-11.9726
gea	-11.9726
lờ	-11.9737
▁đoan	-11.9742
rỗi	-11.9746
▁1960	-11.9749
▁ảm	-11.9751
silva	-11.9752
báu	-11.9759
/2016	-11.9768
cuồng	-11.977
▁ferrari	-11.977
▁swansea	-11.9785
cửu	-11.9787
thua	-11.9795
29	-11.9797
nương	-11.9807
arabia	-11.9811
▁méo	-11.9811
▁1,1	-11.9812
▁nexus	-11.9827
▁dâm	-11.9828
shi	-11.9838
▁catalan	-11.9839
đan	-11.9844
▁xuồng	-11.9851
ruộng	-11.9852
bai	-11.9855
▁adam	-11.986
đắm	-11.986
▁lui	-11.9861
▁like	-11.9862
cối	-11.9866
tắn	-11.9874
nhọc	-11.9881
sh	-11.9895
wenger	-11.9897
▁mòn	-11.9899
▁fulham	-11.9901
sport	-11.9913
▁1/5	-11.9916
▁trâm	-11.9929
▁bu	-11.9933
▁vọng	-11.9935
▁miếu	-11.9937
assad	-11.9937
▁xoài	-11.9941
khoắn	-11.9944
▁sấy	-11.9944
nt	-11.9951
benz	-11.9952
oc	-11.9956
thy	-11.9958
▁chan	-11.9959
▁tctd	-11.9964
▁nhục	-11.9964
tp	-11.9967
hới	-11.9972
ct	-11.9977
46	-11.9978
▁ji	-11.9979
nập	-11.9983
giây	-11.9983
▁chà	-11.9985
▁12.000	-11.9986
▁dép	-11.999
▁héc	-11.9997
chán	-11.9997
▁hcb	-12
▁dì	-12.0001
hường	-12.0007
▁nissan	-12.0014
▁croatia	-12.0016
▁sờ	-12.0022
▁25.000	-12.0022
et	-12.0026
quất	-12.0029
slam	-12.003
▁1968	-12.0032
hn	-12.0033
▁vun	-12.0036
67	-12.004
▁muỗng	-12.0044
rốt	-12.0047
martin	-12.0047
nản	-12.005
▁hạch	-12.0062
jung	-12.0062
ten	-12.007
▁1981	-12.0071
▁108	-12.0072
▁1.2	-12.0075
07	-12.008
▁ư	-12.008
▁ngao	-12.0085
▁bus	-12.0087
nhàn	-12.0088
▁nsnn	-12.0098
▁khinh	-12.0101
-30	-12.011
▁ndhmoney	-12.0113
tóm	-12.0127
▁cõi	-12.013
trầm	-12.0132
▁dj	-12.0135
ine	-12.014
▁kevin	-12.0142
▁5,5	-12.0144
▁khoé	-12.0145
tăm	-12.0147
▁yingluck	-12.0148
gs	-12.015
▁thiệp	-12.0164
▁roi	-12.0168
sảo	-12.0171
▁sẻ	-12.0174
▁98	-12.0174
▁tb	-12.0176
abe	-12.0202
▁laser	-12.0226
▁suôn	-12.0231
dao	-12.0232
▁eva	-12.0232
dép	-12.0238
.2013	-12.0242
▁vung	-12.0244
▁hiên	-12.0258
rực	-12.0278
▁tiễn	-12.0281
tràm	-12.0284
▁yamaha	-12.0293
▁đọ	-12.0297
▁báu	-12.03
▁1976	-12.03
▁xuôi	-12.0303
▁cv	-12.0305
▁carlos	-12.0326
ge	-12.0331
jackson	-12.0335
▁style	-12.0337
▁búa	-12.0342
▁0-0	-12.0343
giục	-12.0351
/2014	-12.0351
▁tỉa	-12.0351
▁4-1	-12.0352
▁got	-12.0361
36	-12.0367
cấn	-12.0379
vớt	-12.0383
hệt	-12.0386
bén	-12.039
▁svđ	-12.0391
▁khuấy	-12.0394
▁bst	-12.0396
khuyết	-12.0409
▁hungary	-12.0416
ju	-12.0419
▁flc	-12.0427
cất	-12.0428
pi	-12.0439
▁1974	-12.0442
▁lenovo	-12.0444
▁tặc	-12.0446
▁ngà	-12.0447
▁kurd	-12.0451
▁mazda	-12.0454
▁roberto	-12.0458
bất	-12.0459
mb	-12.0459
▁arsene	-12.0459
▁ngấm	-12.0469
▁nhịn	-12.047
kẹo	-12.0474
▁0-1	-12.0477
line	-12.0483
▁berlin	-12.0485
cúc	-12.0488
btc	-12.0488
▁14%	-12.0489
▁vcci	-12.049
▁30/4	-12.049
ráo	-12.0497
▁tgđ	-12.0504
ds	-12.0506
▁vip	-12.0518
clinton	-12.0519
lôi	-12.0521
▁nhàm	-12.0523
▁damascus	-12.0525
▁penalty	-12.0527
▁agribank	-12.0535
mác	-12.0538
▁mênh	-12.0538
nhục	-12.0539
▁tthc	-12.0541
▁cmnd	-12.0553
wa	-12.0554
▁quất	-12.0563
căn	-12.0564
▁jessica	-12.0564
muộn	-12.0572
▁củi	-12.0574
xót	-12.0574
▁open	-12.0575
▁alexander	-12.0577
▁nám	-12.0578
chọi	-12.0585
khốc	-12.0592
▁eurozone	-12.0595
ph	-12.0601
▁hao	-12.0602
▁úp	-12.0604
▁cs	-12.0613
hoay	-12.0615
▁sọc	-12.0621
▁tủi	-12.0621
47	-12.0629
trên	-12.063
dy	-12.0634
▁1978	-12.0639
▁belarus	-12.0642
▁70.000	-12.066
vo	-12.0666
▁6-3	-12.0672
▁tevez	-12.0674
mộc	-12.0674
new	-12.0676
79	-12.0678
▁khmer	-12.0681
▁113	-12.0681
international	-12.0682
▁vest	-12.0691
▁tảng	-12.0692
ad	-12.0699
▁sm	-12.07
▁shop	-12.0705
▁gắt	-12.0709
lóc	-12.0715
vạn	-12.0715
▁caq	-12.0716
by	-12.0728
lót	-12.0732
rin	-12.0733
▁đái	-12.0735
▁80.000	-12.0738
soi	-12.074
▁chệch	-12.0742
▁wifi	-12.0743
mỡ	-12.0743
▁xiii	-12.0747
.2011	-12.0751
▁loay	-12.0752
▁uzbekistan	-12.0756
vãn	-12.0759
▁vinalines	-12.076
miền	-12.0767
▁mw	-12.077
thìn	-12.0772
52	-12.078
▁murray	-12.0783
▁vỏn	-12.0789
guardiola	-12.079
▁texas	-12.079
trốn	-12.079
370	-12.0792
▁mar	-12.08
▁mí	-12.0801
hose	-12.0801
▁micro	-12.0804
moon	-12.0805
▁ya	-12.0807
den	-12.0808
bỉ	-12.0811
hóc	-12.0815
▁bloomberg	-12.082
jo	-12.0821
▁chèn	-12.0824
▁thối	-12.0827
nghịch	-12.0827
▁thính	-12.0828
thạo	-12.0828
▁uae	-12.0835
thay	-12.0843
▁hễ	-12.085
bã	-12.0851
▁mah	-12.0856
vờ	-12.0868
▁mập	-12.0875
▁ngán	-12.0877
▁wigan	-12.0888
▁hcđ	-12.0889
▁trán	-12.0891
▁manila	-12.0893
▁lùm	-12.0893
open	-12.0899
lay	-12.09
dặn	-12.0905
▁villa	-12.0907
mìn	-12.0907
nhộn	-12.0912
▁bì	-12.0919
▁loãng	-12.0922
▁dubai	-12.0924
▁6-4	-12.0931
center	-12.0935
▁las	-12.0935
cạn	-12.0936
xuống	-12.0943
▁antonio	-12.0949
▁single	-12.0957
▁94	-12.096
đóng	-12.0961
▁black	-12.0964
68	-12.0971
nành	-12.0973
vợ	-12.0974
ảo	-12.0977
▁3.0	-12.0979
trọt	-12.0979
▁103	-12.098
▁phôi	-12.0982
cẩn	-12.0988
nghẽn	-12.0991
bột	-12.0994
phẳng	-12.0996
ron	-12.0998
lát	-12.1
▁chăng	-12.1001
▁320	-12.1007
rửa	-12.1007
▁pho	-12.1011
▁1973	-12.1014
▁ozil	-12.1015
kha	-12.1017
▁240	-12.1017
▁mách	-12.1017
▁mg	-12.1018
▁35%	-12.1018
▁...-	-12.1027
▁dance	-12.1034
per	-12.1036
▁schalke	-12.1037
▁nung	-12.1042
▁ak	-12.1043
▁135	-12.1047
▁nậm	-12.105
-2008	-12.106
26	-12.1063
hoặc	-12.1063
▁pleiku	-12.1065
▁andrea	-12.1067
jolie	-12.1067
▁mata	-12.1077
▁yemen	-12.1081
▁giỏ	-12.1083
55	-12.1084
▁95%	-12.1085
▁97	-12.1089
ford	-12.1091
vu	-12.1098
nấy	-12.1101
▁75%	-12.1103
king	-12.1108
▁fernando	-12.1114
▁hòng	-12.1114
▁cannes	-12.1127
thiệt	-12.1132
yong	-12.1132
-22	-12.1133
▁anna	-12.1133
bơi	-12.1137
nhọn	-12.1139
▁hường	-12.1141
▁robin	-12.1143
▁nhiễu	-12.1145
▁xịt	-12.1161
▁ngời	-12.1165
hấu	-12.1173
35	-12.1179
▁hất	-12.1187
▁steven	-12.1198
say	-12.1202
▁instagram	-12.1203
rê	-12.1208
gai	-12.121
▁1.6	-12.1212
▁thỏ	-12.1212
▁nhào	-12.1214
▁kền	-12.1214
▁nano	-12.1216
▁giỗ	-12.1217
▁nasa	-12.1218
▁dằn	-12.1219
▁gtgt	-12.1227
▁type	-12.1228
▁giầy	-12.123
▁nhấp	-12.1231
▁ngòi	-12.1234
▁stb	-12.124
▁gareth	-12.1242
▁ndt	-12.1245
▁nghiền	-12.1248
▁pu	-12.1249
váng	-12.1252
giành	-12.1252
sc	-12.1254
▁htv	-12.1269
kền	-12.1273
▁chao	-12.1274
▁carbon	-12.1275
▁ôi	-12.1282
đả	-12.1284
▁ttxh	-12.1285
bước	-12.1286
▁asian	-12.1288
▁cc	-12.1299
▁chắp	-12.1301
▁sar	-12.1305
▁6-2	-12.1309
nếu	-12.1321
tịnh	-12.1322
▁min	-12.1325
▁der	-12.1328
▁13%	-12.1334
black	-12.1334
▁bđ	-12.1335
▁chích	-12.1344
▁qualcomm	-12.1347
▁oà	-12.1353
49	-12.1354
▁lampard	-12.1358
▁pt	-12.1362
▁dời	-12.1362
▁chép	-12.1363
▁cafe	-12.1382
▁hacker	-12.1382
▁mig	-12.1386
-21	-12.1392
▁thóc	-12.1393
sha	-12.1409
▁nani	-12.1411
▁boy	-12.1414
▁break	-12.1414
▁phai	-12.1416
ĩ	-12.1417
ả	-12.1419
▁xê	-12.1419
rai	-12.1423
▁9%	-12.1424
cũng	-12.1425
▁2,2	-12.1428
đũa	-12.1434
ghế	-12.1434
▁xốp	-12.1436
▁8/3	-12.1442
-16	-12.1447
bên	-12.1452
54	-12.1454
▁toan	-12.1456
▁vôi	-12.1464
ngơ	-12.1469
▁nhuyễn	-12.1469
nô	-12.1472
ling	-12.1473
▁két	-12.1476
▁ali	-12.1478
nang	-12.1479
▁piano	-12.1486
leo	-12.1488
▁tảo	-12.1492
store	-12.1494
▁hu	-12.1496
▁giêng	-12.1501
▁photo	-12.1505
▁chọi	-12.1506
gắm	-12.1507
▁băm	-12.1508
▁canon	-12.1509
usd	-12.151
▁2,3	-12.1515
bale	-12.1524
▁frank	-12.1527
▁hun	-12.1528
▁mương	-12.1533
gaga	-12.1533
xen	-12.1538
▁vat	-12.1539
▁......	-12.154
▁dế	-12.1542
▁4-0	-12.1543
pop	-12.1544
▁11%	-12.1549
▁global	-12.1556
▁anfield	-12.1558
▁tẩm	-12.1561
▁thun	-12.1561
ngủi	-12.1567
▁uông	-12.1578
▁vẫy	-12.1579
yeon	-12.1581
▁1977	-12.1581
đã	-12.1585
▁geneva	-12.1585
sk	-12.1595
▁dell	-12.1597
▁bón	-12.1597
nhảy	-12.1601
nhược	-12.1601
48	-12.1602
▁trơ	-12.1604
▁rơm	-12.1606
ali	-12.1608
-4	-12.1623
▁aguero	-12.1623
▁6,5	-12.1626
▁iniesta	-12.1629
27	-12.1629
mậu	-12.163
▁khuẩn	-12.1631
▁fukushima	-12.1636
▁lexus	-12.1638
▁msn	-12.1645
ắp	-12.1646
music	-12.1672
▁young	-12.1686
▁rổ	-12.1687
ze	-12.1688
▁snsd	-12.169
▁test	-12.1691
suarez	-12.1694
▁đôla	-12.1694
.2010	-12.1695
beckham	-12.1698
▁tuột	-12.17
chéo	-12.1701
▁ebola	-12.1704
▁biếu	-12.1704
▁uber	-12.1705
▁triền	-12.1706
▁tý	-12.1706
vóc	-12.1712
-5	-12.1715
don	-12.1721
lư	-12.1722
ry	-12.1723
▁môtô	-12.1724
▁xưng	-12.1732
▁ngoisao	-12.1735
▁robben	-12.1737
▁trau	-12.1738
▁khoán	-12.1746
▁yen	-12.175
/2009	-12.1753
▁rượt	-12.1753
▁victor	-12.1755
▁etihad	-12.1758
▁bongda	-12.1762
ngục	-12.1767
▁hag	-12.1772
▁hat	-12.1773
trân	-12.1775
▁richter	-12.1776
▁suzuki	-12.1779
▁sedan	-12.1779
phùng	-12.178
arena	-12.1783
ster	-12.1785
▁2,4	-12.1788
của	-12.18
▁ngói	-12.18
▁trailer	-12.1808
car	-12.181
chốc	-12.181
88	-12.1816
▁white	-12.1817
thiêm	-12.1817
▁gps	-12.1818
▁qu	-12.182
khoái	-12.1823
▁nhả	-12.1826
bám	-12.1831
▁5-6	-12.1832
▁resort	-12.1842
▁vnm	-12.1845
▁bashar	-12.1846
▁southampton	-12.1849
06	-12.1849
▁250.000	-12.1853
▁drogba	-12.186
you	-12.1861
-2016	-12.1874
▁2019	-12.1876
▁wimbledon	-12.1877
rodriguez	-12.1895
▁0-2	-12.1895
len	-12.1896
92	-12.1898
▁suv	-12.1911
▁1.3	-12.1914
▁baodautu	-12.1915
▁benfica	-12.1928
▁bầm	-12.1936
bồn	-12.1936
-23	-12.1936
▁1.300	-12.1938
75	-12.1939
plaza	-12.194
▁lép	-12.1945
▁miley	-12.195
▁khét	-12.1956
▁lẩu	-12.196
▁krông	-12.1967
▁ec	-12.1976
vt	-12.1977
▁vincom	-12.1978
▁nản	-12.1982
▁sặc	-12.1991
▁sgk	-12.1992
khiêm	-12.2011
hãn	-12.2013
palace	-12.2013
▁casillas	-12.2014
▁kẽm	-12.2015
▁5-7	-12.2018
59	-12.2025
▁rình	-12.2025
ngừ	-12.2031
▁porsche	-12.2039
▁vhttdl	-12.2051
▁nhuận	-12.2057
dốc	-12.2059
▁rùng	-12.206
▁won	-12.2064
he	-12.2068
▁airlines	-12.2069
▁don	-12.2069
▁lì	-12.2073
.2012	-12.2076
kop	-12.2083
▁128	-12.2085
▁pi	-12.2088
kt	-12.2103
▁sanchez	-12.2108
▁nem	-12.2112
bồ	-12.212
▁pepe	-12.2123
31	-12.2124
▁ipod	-12.2129
▁sergei	-12.2142
▁khcn	-12.2143
ye	-12.2143
triết	-12.2145
▁đốn	-12.2147
▁serena	-12.215
▁acer	-12.2156
▁giông	-12.2158
ngần	-12.2159
▁2/9	-12.2164
phẫu	-12.2166
được	-12.2168
chước	-12.2171
ngồi	-12.2174
▁6-7	-12.2182
▁sầu	-12.2185
williams	-12.2188
kin	-12.2189
▁acid	-12.2189
kỉ	-12.2193
▁ngó	-12.2195
▁diva	-12.2196
hạch	-12.2206
▁thiago	-12.2213
▁3-5	-12.2215
bẩy	-12.2218
▁tràm	-12.2225
▁nhị	-12.2225
▁ja	-12.2226
chuột	-12.2226
86	-12.2229
▁quậy	-12.2237
lđ	-12.2244
▁tăm	-12.2244
▁dứa	-12.2246
39	-12.2249
99	-12.2252
▁bục	-12.2256
house	-12.2265
▁ngửa	-12.2271
ốt	-12.2273
▁cholesterol	-12.2279
▁gerrard	-12.2284
▁ếch	-12.2287
▁lon	-12.2289
▁solo	-12.2291
tuyền	-12.2296
▁đọng	-12.2298
▁kiêng	-12.2299
-18	-12.23
▁noi	-12.2306
▁101	-12.2308
quẩn	-12.231
▁600.000	-12.2311
▁trỗi	-12.2312
▁0%	-12.2312
▁ngừa	-12.2315
tắt	-12.2317
▁750	-12.2324
street	-12.2325
loa	-12.2326
costa	-12.2328
bền	-12.2328
ngưu	-12.2332
▁nấy	-12.2333
▁roger	-12.2343
▁lyon	-12.2347
▁đực	-12.235
▁mò	-12.2352
▁rim	-12.2354
▁wave	-12.2354
▁un	-12.2355
les	-12.236
▁forbes	-12.2361
▁jung	-12.2362
▁gập	-12.2363
▁tuýp	-12.2365
yahoo	-12.2367
buổi	-12.237
▁brunei	-12.2371
▁abe	-12.2374
▁que	-12.2376
▁1.4	-12.2379
▁vcb	-12.238
chấm	-12.2383
▁liêu	-12.2386
▁collagen	-12.239
kyo	-12.2392
▁720	-12.2392
eu	-12.2394
▁giăng	-12.2396
▁dong	-12.24
▁xùm	-12.2401
▁all	-12.2406
▁iso	-12.2409
nes	-12.242
doãn	-12.2422
sỡ	-12.243
▁doc	-12.243
▁khiển	-12.2431
nhoáng	-12.2432
▁ngắt	-12.2448
▁arab	-12.2448
58	-12.2451
▁index	-12.2452
▁eric	-12.2452
▁nà	-12.2456
von	-12.2456
▁vinaconex	-12.2458
▁ào	-12.2459
▁dí	-12.2466
▁bon	-12.2467
05	-12.2468
▁kiếp	-12.2469
▁nilon	-12.2469
▁ck	-12.2472
xả	-12.2473
▁18%	-12.2475
▁bgk	-12.2479
▁persie	-12.248
▁kv	-12.2485
▁mail	-12.2487
vác	-12.2491
▁adb	-12.2493
▁ngổn	-12.2497
▁moon	-12.2499
tor	-12.25
,1%	-12.2502
▁tày	-12.2503
▁chướng	-12.2505
44	-12.2506
▁lưỡng	-12.2506
đãng	-12.2507
▁sưởi	-12.2512
tần	-12.2514
▁gdđt	-12.2516
▁cuốc	-12.2529
▁hsbc	-12.2529
▁bừng	-12.2535
tae	-12.2538
▁xiết	-12.2538
rôn	-12.2541
▁nicolas	-12.2542
▁chắt	-12.2543
▁xoăn	-12.2548
▁hillary	-12.255
▁sưa	-12.2551
cừ	-12.2551
lẻo	-12.2551
38	-12.2555
▁mớ	-12.2557
▁đhcđ	-12.2557
▁bql	-12.2561
mây	-12.2561
lopez	-12.2563
▁ecuador	-12.2564
▁abu	-12.2564
▁tuyền	-12.2567
tuông	-12.2567
▁cent	-12.2569
▁7,5	-12.2569
diệp	-12.2571
▁rằm	-12.2574
▁yu	-12.2577
▁thà	-12.2581
ion	-12.2583
ấu	-12.2595
▁secret	-12.2596
▁ron	-12.2598
▁time	-12.2604
▁hùm	-12.2606
▁vietstock	-12.2609
kar	-12.2609
gì	-12.2613
▁ml	-12.2623
▁đspl	-12.2623
▁vong	-12.2624
ie	-12.2624
▁calo	-12.2629
gác	-12.2631
▁10/10	-12.2633
▁súp	-12.2637
▁cằm	-12.2639
▁sô	-12.264
▁siu	-12.2641
▁côngthương	-12.2648
daily	-12.2655
74	-12.2665
▁gary	-12.267
▁giở	-12.267
▁lim	-12.2671
▁khấu	-12.2672
28	-12.2674
miếu	-12.2679
▁henry	-12.2683
▁102	-12.2684
tiệp	-12.2688
▁touch	-12.269
▁sydney	-12.2693
▁cbcs	-12.2696
▁hc	-12.2705
rổ	-12.2706
▁wales	-12.2707
nướng	-12.2709
▁ub	-12.2712
đốn	-12.2713
▁cắp	-12.2715
lứa	-12.2715
▁mứt	-12.272
▁365	-12.272
▁lược	-12.272
▁valentine	-12.2725
bẹp	-12.2725
76	-12.2725
▁green	-12.2727
nguy	-12.273
▁chrome	-12.2734
▁florida	-12.2736
râu	-12.2738
33	-12.2747
▁vamc	-12.2748
sg	-12.2752
78	-12.2753
kv	-12.2754
day	-12.2754
04	-12.2755
yu	-12.2761
▁dream	-12.2762
▁hye	-12.2762
thoa	-12.2764
▁cabin	-12.2765
ara	-12.2766
tung	-12.2772
thơm	-12.2776
▁lượn	-12.2776
▁lay	-12.2777
▁café	-12.2781
▁phớt	-12.2784
dại	-12.2791
▁nnptnt	-12.2791
phả	-12.2793
nhằn	-12.2801
▁nghẹt	-12.2804
chan	-12.2811
▁peru	-12.2812
▁cạo	-12.2814
▁ds	-12.2819
▁võng	-12.2822
▁ibrahimovic	-12.2823
▁1.7	-12.2828
▁1954	-12.2828
▁hh	-12.2829
66	-12.283
▁ns	-12.2832
,6%	-12.2834
thối	-12.2835
ers	-12.285
tê	-12.2853
▁noo	-12.286
▁selena	-12.2863
▁1/10	-12.2865
lút	-12.2866
toan	-12.2869
▁mồng	-12.2871
phường	-12.2872
cớ	-12.2876
tru	-12.2876
▁xổ	-12.2883
▁rỉ	-12.2895
▁kẽ	-12.2896
▁ryan	-12.2899
▁bướm	-12.29
▁đả	-12.29
▁đũa	-12.2903
100	-12.2904
dai	-12.2906
97	-12.2917
▁mấu	-12.292
▁concept	-12.2921
▁gào	-12.2925
▁gộp	-12.2927
pitt	-12.2928
▁voh	-12.2929
▁vợt	-12.293
▁ốp	-12.2936
69	-12.2937
▁lb	-12.2937
ana	-12.2937
▁hủ	-12.294
85	-12.294
plus	-12.2942
▁infonet	-12.2944
▁gold	-12.2946
▁3,2	-12.2948
▁cb	-12.2951
nằm	-12.296
▁porto	-12.2963
▁1.600	-12.2966
▁thẳm	-12.2967
xì	-12.2968
▁christian	-12.2974
bon	-12.2976
60	-12.2976
▁beckham	-12.2979
▁op	-12.2981
95	-12.2987
▁cnlđ	-12.2987
cđ	-12.2993
max	-12.2998
▁căm	-12.2998
awards	-12.3011
▁higuain	-12.3011
thảm	-12.3011
▁óc	-12.3012
▁141	-12.3016
▁16%	-12.3021
sưa	-12.3027
wan	-12.3027
▁tít	-12.3033
▁nhổ	-12.3034
▁os	-12.3037
▁tạng	-12.3039
áng	-12.304
tech	-12.3043
vơ	-12.305
sanchez	-12.3052
-8	-12.3055
giặt	-12.3055
đinh	-12.3055
▁xá	-12.3064
▁benitez	-12.3065
đam	-12.3068
hu	-12.3086
tòi	-12.3094
▁bèo	-12.3096
.2017	-12.3098
▁gọt	-12.3102
má	-12.3107
khan	-12.3108
cu	-12.3113
▁xịn	-12.3113
suk	-12.3115
▁quật	-12.3115
duẩn	-12.3116
▁maradona	-12.3117
ukraine	-12.3117
▁lán	-12.3117
▁nang	-12.3119
talent	-12.312
▁kuala	-12.3121
▁ken	-12.3125
▁chài	-12.3125
▁nhện	-12.3129
▁attp	-12.3132
▁yoga	-12.3133
▁marc	-12.3135
org	-12.3137
khéo	-12.314
▁pedro	-12.3147
tuyên	-12.3147
xẻ	-12.3148
rt	-12.3157
ối	-12.3157
▁gram	-12.3158
01	-12.3163
ấp	-12.3172
▁he	-12.3173
▁pvx	-12.3173
▁1971	-12.3179
gmail	-12.318
,3%	-12.3181
dang	-12.3183
fc	-12.3186
▁pan	-12.3187
ap	-12.3191
34	-12.3193
▁xnk	-12.3193
▁lạch	-12.3194
▁chay	-12.3196
▁guardiola	-12.3197
tab	-12.3198
ser	-12.3202
xtan	-12.3205
▁6-1	-12.3212
▁pvc	-12.3225
▁mekong	-12.3225
im	-12.3225
zi	-12.3225
/2006	-12.3228
cơn	-12.3229
nghĩnh	-12.3233
▁mầu	-12.3235
hốt	-12.3237
▁gm	-12.3237
▁chevrolet	-12.3241
83	-12.3242
▁leonardo	-12.3243
▁1.1	-12.3247
diesel	-12.3248
nhẹn	-12.3249
▁17%	-12.3251
vặt	-12.3251
▁idol	-12.3252
▁guitar	-12.3255
▁phil	-12.3258
▁link	-12.3258
át	-12.3261
▁kang	-12.3262
way	-12.3271
▁găng	-12.3281
▁american	-12.3287
▁dr	-12.3287
chưng	-12.3288
▁shin	-12.3293
trick	-12.3296
▁2,7	-12.3296
▁cah	-12.3298
vành	-12.33
ver	-12.3305
▁3.500	-12.3306
book	-12.3308
▁silva	-12.3309
vỹ	-12.3309
▁hamas	-12.3309
nạt	-12.331
swift	-12.3315
sky	-12.3318
london	-12.3329
63	-12.3335
▁crystal	-12.3337
▁dầm	-12.3343
▁hờ	-12.3346
▁cl	-12.3351
▁coca	-12.3355
▁mike	-12.3356
▁ntd	-12.3358
.000	-12.3359
▁algeria	-12.3359
▁ngự	-12.3361
▁tennis	-12.3362
lumpur	-12.3364
▁thày	-12.3368
▁radio	-12.337
▁sùng	-12.3372
▁status	-12.3373
vạ	-12.3373
ngóng	-12.3375
▁bọt	-12.3375
▁bênh	-12.3378
dan	-12.3379
▁2,6	-12.3381
▁ajax	-12.3381
▁1969	-12.3383
lửng	-12.3384
▁thê	-12.3389
ải	-12.3391
▁112	-12.3393
▁1967	-12.34
▁qpr	-12.3405
▁titan	-12.3405
nd	-12.3407
32	-12.3411
▁walcott	-12.3417
sương	-12.3417
hởi	-12.3419
▁opera	-12.3423
chen	-12.3429
▁hđ	-12.343
ev	-12.343
▁tct	-12.343
▁miranda	-12.3433
rs	-12.3434
▁ngạt	-12.3434
hấn	-12.3435
▁xm	-12.3435
▁rihanna	-12.3437
▁we	-12.3441
▁dạt	-12.3442
▁dấn	-12.3445
xấu	-12.3446
▁diêm	-12.3452
khủng	-12.3457
70	-12.346
gt	-12.3464
coi	-12.347
rang	-12.3472
▁1945	-12.3475
▁nđ	-12.3476
gáy	-12.3484
▁thới	-12.3484
▁2,8	-12.3489
▁pnj	-12.3493
57	-12.3494
▁lazio	-12.3494
▁ekip	-12.3495
lưỡi	-12.3504
▁sà	-12.3505
chiêu	-12.3513
▁tony	-12.3513
▁nhích	-12.3517
hư	-12.3518
gò	-12.352
que	-12.3521
▁alexis	-12.3522
▁tl	-12.3522
đánh	-12.353
ls	-12.3532
▁lte	-12.3537
▁reo	-12.3538
fe	-12.3542
shin	-12.3542
▁65%	-12.3549
ck	-12.355
37	-12.3551
▁elizabeth	-12.3552
trứng	-12.3552
.2014	-12.3553
hnx	-12.3555
▁nhọc	-12.3561
▁dow	-12.3565
▁mẹo	-12.3571
▁moyes	-12.3572
▁bvh	-12.3578
▁thiểu	-12.3584
/08	-12.3585
▁khuynh	-12.3586
▁diên	-12.3587
▁bank	-12.3588
▁gr	-12.3594
51	-12.3604
royce	-12.3605
boas	-12.3609
▁ms	-12.3612
del	-12.3613
0%	-12.3613
▁techcombank	-12.3617
lẫm	-12.362
▁yonhap	-12.3623
ic	-12.3623
▁knock	-12.3625
▁0,2	-12.3627
ker	-12.3628
41	-12.3628
▁cừu	-12.3628
▁stephen	-12.3632
sộ	-12.3635
▁rãnh	-12.3639
▁1.8	-12.3639
▁sneijder	-12.3643
▁charles	-12.3643
johnson	-12.3644
▁nhai	-12.3646
▁9.000	-12.3651
72	-12.3656
▁85%	-12.366
▁becks	-12.3661
▁120.000	-12.3666
▁gáy	-12.3672
▁đẫy	-12.3673
ria	-12.3673
▁rát	-12.3679
ngửa	-12.3683
▁per	-12.3685
ram	-12.3689
▁uav	-12.3694
▁silicon	-12.3695
yo	-12.3697
dọn	-12.3698
▁0,3	-12.3702
▁or	-12.3702
class	-12.3705
▁4-6	-12.3708
▁1/6	-12.371
▁son	-12.3712
town	-12.3714
▁1.400	-12.3725
▁nobel	-12.373
sê	-12.373
lặp	-12.374
▁by	-12.374
bể	-12.3743
hả	-12.3748
gỗ	-12.3751
▁1,9	-12.3753
đao	-12.3755
▁mồm	-12.3758
cướp	-12.3762
▁hybrid	-12.3762
▁bùa	-12.3764
bời	-12.3768
▁macbook	-12.3769
nặc	-12.3771
▁104	-12.3772
▁550	-12.3773
▁casino	-12.3778
rà	-12.3778
▁rốn	-12.378
▁còng	-12.3783
▁ligue	-12.3784
tw	-12.3784
hăng	-12.3795
é	-12.3795
ám	-12.3796
,	-12.3806
smith	-12.3808
▁?.	-12.381
chang	-12.3816
▁beta	-12.3817
▁nickname	-12.3823
khá	-12.3824
▁sáo	-12.3825
▁nhúng	-12.3828
▁poster	-12.3833
▁gởi	-12.3835
▁malaga	-12.3838
65	-12.384
▁kén	-12.3841
▁adn	-12.3846
▁480	-12.3846
▁vnexpress	-12.3848
▁hazard	-12.3855
▁cưỡi	-12.3856
▁650	-12.3858
đẽ	-12.3859
/09	-12.3869
▁mui	-12.3871
▁tcty	-12.3872
▁bhl	-12.3879
▁lùn	-12.389
thiêng	-12.389
90	-12.3891
▁plo	-12.3891
▁cau	-12.3893
nhảnh	-12.3897
phao	-12.3897
▁kazakhstan	-12.3903
▁tột	-12.3905
yang	-12.3906
fu	-12.3906
ngoãn	-12.3908
.000.000	-12.3908
/01	-12.3909
lăn	-12.3916
▁boston	-12.392
▁bén	-12.392
▁oceanbank	-12.392
▁lố	-12.3921
▁ihay	-12.3921
▁...(	-12.3922
▁sạp	-12.3927
xỉu	-12.393
56	-12.3932
77	-12.3934
tết	-12.3936
khẩn	-12.3938
▁800.000	-12.3946
▁45%	-12.395
▁marcelo	-12.3954
▁office	-12.3958
▁ipo	-12.3962
▁hăm	-12.3964
▁lamborghini	-12.3965
kan	-12.3969
▁cốp	-12.3972
▁gaza	-12.3975
tags	-12.3978
nôn	-12.3981
▁kelly	-12.3987
ới	-12.3989
▁tc	-12.3991
▁ramos	-12.3993
▁saint	-12.3994
riết	-12.3998
au	-12.4001
vegas	-12.4004
▁ấu	-12.401
▁mẩu	-12.4011
nê	-12.4016
▁czech	-12.4019
▁cpu	-12.4021
▁nạc	-12.4023
khuất	-12.4027
▁dăm	-12.4036
trơn	-12.404
mon	-12.4042
cang	-12.4045
life	-12.4051
▁bulgaria	-12.4052
96	-12.4055
▁2.5	-12.4058
▁cáu	-12.4058
ngùng	-12.406
▁life	-12.4062
asia	-12.4065
▁marseille	-12.4068
quyển	-12.4071
71	-12.4077
▁khay	-12.4085
▁blhs	-12.4087
▁rậm	-12.4087
▁ad	-12.4087
▁moskva	-12.4098
▁fabio	-12.4099
bạt	-12.4111
▁đai	-12.4115
▁hormone	-12.4118
▁hắt	-12.4123
"	-12.4126
09	-12.413
thới	-12.413
▁lầy	-12.4131
jobs	-12.4133
tạc	-12.414
▁uyển	-12.4141
▁vâng	-12.4143
cola	-12.4146
mer	-12.4148
▁loét	-12.415
▁navibank	-12.4152
▁make	-12.4155
mấy	-12.4159
▁dmitry	-12.4164
▁230	-12.4167
tc	-12.4172
▁hsx	-12.4173
▁chải	-12.4175
▁po	-12.4176
▁dioxin	-12.418
▁xoè	-12.4183
▁norwich	-12.4185
ướt	-12.4185
bra	-12.4186
▁24/2	-12.4188
▁kèn	-12.419
▁ghana	-12.419
▁vol	-12.419
▁vớ	-12.4199
thiều	-12.42
▁ibra	-12.4204
chùa	-12.4206
▁30/6	-12.4209
bieber	-12.4209
▁rome	-12.4213
▁tncs	-12.4218
▁bvtv	-12.4229
▁chqs	-12.4231
▁rêu	-12.4231
▁vđqg	-12.4234
▁ju	-12.4236
▁rolls	-12.4238
▁23/10	-12.4241
▁jakarta	-12.4246
▁nơ	-12.4247
▁start	-12.4247
▁20/11	-12.4248
▁xii	-12.4249
lãi	-12.425
▁toshiba	-12.4256
▁2,1	-12.4263
▁trũng	-12.4266
▁1950	-12.427
▁húc	-12.4272
-17	-12.4272
▁bổng	-12.4273
cơm	-12.4275
▁shinzo	-12.4279
▁bã	-12.428
tour	-12.4281
▁1.9	-12.4282
spa	-12.4287
▁rơ	-12.4293
▁sxh	-12.43
▁nu	-12.4306
hoán	-12.4313
.2009	-12.4318
▁eto	-12.4321
field	-12.4323
▁20/5	-12.4325
▁bit	-12.4326
▁thuyên	-12.4328
ger	-12.4332
▁1.0	-12.4334
▁edward	-12.4336
▁nhang	-12.4337
dãi	-12.4338
▁will	-12.4342
ngỏ	-12.4344
▁mou	-12.4345
stone	-12.4347
▁thản	-12.4353
▁au	-12.4358
ỉ	-12.436
▁ip	-12.4361
▁raul	-12.4364
▁vo	-12.4376
lừa	-12.4381
/19	-12.4386
▁rán	-12.4392
▁quát	-12.4393
▁giggs	-12.4396
▁ne	-12.4397
▁vơi	-12.4398
▁falcao	-12.4405
▁manuel	-12.4408
ó	-12.4412
tị	-12.4427
▁fta	-12.4428
▁tuồng	-12.4429
-10	-12.4435
nứt	-12.4436
lơ	-12.4437
tàn	-12.4441
mịt	-12.4444
▁evra	-12.4445
▁bèn	-12.4447
▁1.800	-12.4456
▁tào	-12.4457
▁snapdragon	-12.4458
▁max	-12.4462
▁1964	-12.4465
▁hoán	-12.4468
zo	-12.4468
wood	-12.4469
▁ths	-12.4469
▁iaea	-12.4474
▁kremlin	-12.448
▁175	-12.4486
▁ke	-12.4494
sá	-12.4499
▁370	-12.4499
bông	-12.4507
/2005	-12.451
▁ụ	-12.4511
▁fiorentina	-12.4511
eun	-12.4511
▁chớ	-12.4518
mặn	-12.453
▁villas	-12.4531
▁sd	-12.4533
▁lukaku	-12.4536
▁lebanon	-12.4537
sam	-12.4539
uất	-12.454
▁nhờn	-12.4545
▁nách	-12.4553
▁1966	-12.4553
nhoà	-12.4557
▁xù	-12.4558
tót	-12.4562
thà	-12.4566
▁càn	-12.4571
▁nã	-12.4581
▁23/8	-12.4581
cạp	-12.4582
chợt	-12.4582
gomez	-12.4582
kiêng	-12.4583
ex	-12.4584
▁sms	-12.4586
nhức	-12.4587
▁doãn	-12.4592
▁1965	-12.4592
81	-12.4593
64	-12.4597
▁chuộng	-12.4598
▁123	-12.46
uk	-12.4603
ns	-12.4604
nhắn	-12.4606
lđlđvn	-12.4607
▁giun	-12.4607
▁car	-12.4608
80	-12.4608
▁đáo	-12.461
▁vệt	-12.461
▁cover	-12.461
pad	-12.4616
▁shi	-12.4618
▁mận	-12.4623
▁ươm	-12.4623
▁múc	-12.4625
ac	-12.4627
▁arập	-12.4628
face	-12.4631
▁sri	-12.464
▁power	-12.4646
▁tcm	-12.4646
nia	-12.4647
jun	-12.4648
▁sò	-12.4648
▁gồng	-12.4651
▁auto	-12.4654
▁trầy	-12.4657
▁127	-12.4659
lướt	-12.4659
▁telegraph	-12.4664
▁dõi	-12.4666
▁nasdaq	-12.4666
▁15/4	-12.4668
▁trớ	-12.4674
...	-12.4678
ak	-12.4681
▁danny	-12.4686
hoành	-12.4686
▁land	-12.4689
ting	-12.4689
▁bangladesh	-12.4692
um	-12.4695
▁1080	-12.4702
▁chicago	-12.4704
87	-12.4704
▁ribery	-12.4705
je	-12.4705
nỉ	-12.4711
▁1962	-12.4714
▁hawaii	-12.4717
▁chòi	-12.4717
▁nsa	-12.4719
▁ccb	-12.4727
▁maya	-12.4728
▁bô	-12.4737
đưa	-12.4741
ryan	-12.4746
▁marco	-12.4751
▁gội	-12.4755
▁00	-12.4758
▁jay	-12.4761
miễn	-12.4761
▁cuống	-12.4764
▁cnvclđ	-12.4765
▁tm	-12.4771
sch	-12.478
ferdinand	-12.4784
brown	-12.4784
we	-12.4788
▁hotline	-12.479
gr	-12.4795
▁cõng	-12.4795
▁vụng	-12.4796
▁sảng	-12.4796
gớm	-12.48
▁lư	-12.4803
pt	-12.4806
▁phồng	-12.4808
gates	-12.4809
pv	-12.481
gu	-12.481
nom	-12.4812
▁note	-12.4813
qg	-12.4817
▁oi	-12.4818
sủa	-12.4822
hon	-12.4823
▁conte	-12.4823
▁1/7	-12.483
toure	-12.4836
▁túm	-12.4836
▁ruồi	-12.4841
▁bái	-12.4842
▁hotgirl	-12.4845
▁sói	-12.4846
?	-12.4846
▁đác	-12.4849
▁5-10	-12.485
pacific	-12.4852
of	-12.4852
lane	-12.4859
▁107	-12.4862
▁ibm	-12.4862
▁19/4	-12.4862
▁miên	-12.4872
love	-12.4872
images	-12.4874
84	-12.4878
/03	-12.4886
▁mẫn	-12.4886
lim	-12.4886
▁khiếp	-12.4895
▁7-8	-12.4896
▁chát	-12.4896
▁fu	-12.4899
▁pclb	-12.49
98	-12.4904
trẻo	-12.4905
▁nhét	-12.4907
gun	-12.4908
▁cesc	-12.4909
kerry	-12.4914
ot	-12.4916
ms	-12.4916
ngụ	-12.4916
▁mbh	-12.4919
▁scic	-12.4928
▁ree	-12.493
kề	-12.493
▁35.000	-12.4932
gar	-12.4936
hổi	-12.4937
▁hòm	-12.4937
box	-12.4942
▁24/24	-12.4944
▁lucas	-12.4954
93	-12.4967
500	-12.4974
▁ge	-12.4975
▁trảng	-12.4976
▁tripoli	-12.4978
▁ferdinand	-12.4978
trồ	-12.498
▁alonso	-12.498
▁sum	-12.4981
▁tì	-12.4985
▁thạo	-12.4988
▁andre	-12.4989
thổi	-12.4994
▁scott	-12.4997
91	-12.4997
▁190	-12.4999
for	-12.5
mẩn	-12.5008
▁best	-12.5017
▁bành	-12.5019
▁panasonic	-12.5025
dẳng	-12.5026
ks	-12.5027
▁19/7	-12.5029
▁ed	-12.5038
▁14/9	-12.5055
bề	-12.5056
terry	-12.5057
▁kpop	-12.506
cấy	-12.5063
▁ht	-12.5063
dồi	-12.507
▁15/9	-12.5072
vina	-12.5074
▁22%	-12.5074
▁futsal	-12.508
▁rườm	-12.5083
▁tỳ	-12.509
cội	-12.5093
▁fanpage	-12.5094
▁lờ	-12.5096
▁group	-12.51
gợi	-12.5105
▁click	-12.5107
▁huyệt	-12.511
▁lợp	-12.5114
vế	-12.5115
bềnh	-12.5116
▁katie	-12.5118
tấp	-12.512
sports	-12.5121
▁sải	-12.5122
▁ok	-12.5123
-9	-12.5125
val	-12.5129
media	-12.5132
▁jun	-12.5143
hỷ	-12.5147
▁kali	-12.5147
▁nấc	-12.5149
▁116	-12.515
▁2025	-12.5151
hinh	-12.5152
cay	-12.5152
▁chàm	-12.5154
▁ten	-12.5158
▁vượng	-12.5159
▁nguyền	-12.5159
hầu	-12.5162
▁ita	-12.5162
,8%	-12.5165
▁vietjet	-12.5173
▁hốc	-12.518
tel	-12.5184
▁tđc	-12.5187
▁7-6	-12.5188
▁5/7	-12.5189
federer	-12.5191
▁abc	-12.5193
▁simon	-12.5194
kov	-12.5195
▁18/7	-12.5196
-300	-12.5196
tợn	-12.5198
nó	-12.5204
▁ngượng	-12.5205
▁lindsay	-12.5215
▁dối	-12.522
bơm	-12.5223
▁phunutoday	-12.5232
▁vhtt	-12.5234
xíu	-12.5235
▁3.5	-12.5237
42	-12.5238
ec	-12.5241
▁vedan	-12.5243
53	-12.5246
▁airbus	-12.5246
tr	-12.5248
▁ecb	-12.526
▁roland	-12.5265
▁teo	-12.527
▁pique	-12.5272
▁dơi	-12.5279
đang	-12.5279
▁15/10	-12.5289
▁nhũ	-12.5293
▁lũng	-12.5293
▁đốm	-12.5293
-50	-12.5294
ben	-12.5298
▁viii	-12.5302
▁net	-12.5305
thầy	-12.531
▁106	-12.5325
▁made	-12.5329
viet	-12.5336
nhí	-12.534
▁4/5	-12.5343
▁khăng	-12.5344
▁3/4	-12.535
tuân	-12.5358
nham	-12.5361
shinawatra	-12.5366
▁20/4	-12.5372
▁cđcs	-12.5373
cs	-12.5373
niềm	-12.5375
▁chằng	-12.5379
▁mài	-12.538
▁welbeck	-12.5385
▁700.000	-12.5389
300	-12.5394
▁sbs	-12.5394
nhác	-12.5395
francisco	-12.5399
tuất	-12.5401
▁cặn	-12.5405
grand	-12.5408
phông	-12.5409
▁carlo	-12.5409
▁loang	-12.5413
journal	-12.5424
▁tuệ	-12.5424
lậy	-12.5428
sét	-12.5428
▁pvf	-12.5433
▁18/4	-12.5437
▁music	-12.5439
ngạn	-12.5442
▁hugo	-12.5447
-2007	-12.545
▁roy	-12.5459
▁đvo	-12.5459
▁basel	-12.5463
▁11/9	-12.5464
▁mitsubishi	-12.5464
▁pe	-12.5465
▁chần	-12.5469
▁dìu	-12.5475
▁pen	-12.5478
▁đấng	-12.5483
▁22/7	-12.5486
nadal	-12.5486
cú	-12.5486
dar	-12.5489
tphcm	-12.549
▁bizlive	-12.5494
▁andrew	-12.5503
▁capello	-12.5504
▁phận	-12.5505
▁2.2	-12.5505
motor	-12.551
sụp	-12.5511
▁20/3	-12.5518
▁harvard	-12.5519
▁huawei	-12.5519
▁vp	-12.5519
▁hoằng	-12.5527
▁cshs	-12.5529
▁cairo	-12.553
▁vin	-12.5531
bữa	-12.5538
▁eur	-12.5541
▁tg	-12.5547
▁nasri	-12.5547
nie	-12.555
▁wang	-12.5551
mùi	-12.5558
73	-12.5558
▁blackburn	-12.5562
▁thán	-12.5565
▁3,4	-12.5567
▁zoom	-12.5569
▁1.100	-12.557
ken	-12.5571
mịch	-12.5573
▁súc	-12.5579
tower	-12.5581
▁17/7	-12.5582
▁king	-12.5583
▁asia	-12.5584
▁csb	-12.5584
▁kp	-12.5584
▁ps	-12.5587
▁chông	-12.5593
penh	-12.5594
▁firefox	-12.5601
▁kn	-12.5601
líu	-12.5618
▁0,4	-12.5621
dạt	-12.5623
rd	-12.5632
yếm	-12.5633
▁fans	-12.5635
▁voan	-12.5636
bụi	-12.5637
▁atvstp	-12.5638
▁javier	-12.5638
02	-12.5645
▁1/1	-12.5647
delhi	-12.5651
▁4,7	-12.5652
ắng	-12.5655
▁short	-12.5657
▁charlie	-12.5667
▁uni	-12.567
▁270	-12.5671
▁ngớt	-12.5673
bênh	-12.5675
▁21/3	-12.5678
▁thục	-12.5679
ngay	-12.5681
light	-12.5682
▁22/10	-12.5682
▁210	-12.5684
▁mary	-12.5686
▁grab	-12.5686
▁doji	-12.5689
▁117	-12.5696
▁bịa	-12.5711
'	-12.5713
fashion	-12.5717
chội	-12.5721
▁bolero	-12.5724
muống	-12.5726
▁mátxcơva	-12.5729
bỉnh	-12.5732
nhặt	-12.5739
capital	-12.5741
torres	-12.5743
qui	-12.5747
mạ	-12.5748
▁cụt	-12.5761
▁nguôi	-12.5767
89	-12.5768
thừng	-12.5768
▁lanh	-12.5769
▁katy	-12.577
▁angel	-12.5774
▁rt	-12.5777
▁en	-12.5778
▁xói	-12.5779
▁15/5	-12.5783
61	-12.5786
dẻo	-12.5787
cỏi	-12.5789
/12/2011	-12.5789
▁vgp	-12.5795
▁114	-12.5796
▁quýt	-12.5797
rời	-12.5798
▁hời	-12.5801
▁13.000	-12.5801
▁kèo	-12.5804
▁media	-12.5806
nức	-12.5809
nhiễu	-12.5809
▁rành	-12.581
pan	-12.5815
▁britney	-12.5815
▁vả	-12.5816
tẻ	-12.5818
▁21/12	-12.582
▁santos	-12.5823
chiêng	-12.5829
▁gượng	-12.583
ll	-12.5831
▁vidic	-12.5831
age	-12.5835
▁bra	-12.5837
▁giàng	-12.5837
-6	-12.584
▁yang	-12.5842
dính	-12.5843
vẫn	-12.5843
▁ubkt	-12.5844
bợ	-12.5847
▁phnom	-12.5851
94	-12.5851
08	-12.5851
pc	-12.5855
om	-12.5858
dc	-12.5863
video	-12.5865
▁1.700	-12.5865
▁latinh	-12.5868
▁109	-12.5868
thỏ	-12.587
▁hđh	-12.5881
▁samuel	-12.5885
phui	-12.5887
▁nhiêu	-12.5889
-2020	-12.589
ao	-12.5897
▁hanoi	-12.5897
▁amsterdam	-12.5897
bóp	-12.5899
▁johnny	-12.59
khoan	-12.5904
▁21/6	-12.5904
▁alan	-12.591
lặn	-12.5912
▁romania	-12.5914
▁7-5	-12.5919
▁fox	-12.5921
▁khẽ	-12.5922
lab	-12.5928
merkel	-12.5929
▁14/7	-12.593
▁3,6	-12.5934
▁vụt	-12.5936
đếm	-12.5937
bom	-12.5938
▁khóm	-12.5941
giã	-12.5941
yi	-12.5945
▁yaya	-12.5945
▁project	-12.5949
▁yoon	-12.595
sin	-12.5951
pháo	-12.5951
perry	-12.5952
43	-12.5954
▁mali	-12.5959
rắc	-12.5962
giggs	-12.5966
▁villarreal	-12.5972
▁standard	-12.5973
▁goal	-12.5987
▁menu	-12.5991
zu	-12.5993
▁jazz	-12.5993
gao	-12.5997
lồng	-12.5997
▁cheryl	-12.6
▁225	-12.6004
green	-12.6007
▁xx	-12.601
hủ	-12.6026
red	-12.6028
▁atp	-12.6029
▁22/8	-12.6033
jae	-12.6039
lavrov	-12.6042
gương	-12.6047
▁btv	-12.6052
▁hằn	-12.6058
▁xui	-12.6059
▁22/12	-12.6063
quên	-12.6069
▁moto	-12.607
▁6.5	-12.6071
▁đố	-12.6077
▁pellegrini	-12.6077
▁bấp	-12.6077
▁dan	-12.6079
▁chầu	-12.6081
gov	-12.6083
▁11.000	-12.6086
▁vii	-12.6088
nhát	-12.6089
▁31/8	-12.6096
▁trù	-12.6101
▁studio	-12.6103
▁stylist	-12.6106
đậm	-12.611
ol	-12.6117
ek	-12.6118
rio	-12.6119
khói	-12.612
ghét	-12.612
ngợp	-12.6122
▁đằm	-12.6122
▁1-5	-12.6129
▁dđdn	-12.6129
power	-12.613
iv	-12.6137
ngoạn	-12.6141
quyện	-12.6141
ard	-12.6142
-27	-12.6144
▁irina	-12.6149
nén	-12.6151
▁giấm	-12.6152
▁4-2	-12.6154
tar	-12.6154
ngẫm	-12.6159
▁280	-12.6161
▁20/7	-12.6167
▁găm	-12.617
▁gene	-12.6176
mata	-12.6178
ancelotti	-12.6179
hun	-12.6188
▁mohamed	-12.619
▁bh	-12.6192
mann	-12.6194
▁miami	-12.6198
ếch	-12.6199
pen	-12.6199
siro	-12.62
▁tkv	-12.6205
tôm	-12.6205
▁4,3	-12.6207
▁23/9	-12.6212
▁xao	-12.6213
lem	-12.6213
▁nathan	-12.6215
▁pctn	-12.6221
▁nvidia	-12.6225
alonso	-12.6226
▁kcx	-12.6226
▁1963	-12.6226
▁brent	-12.6227
▁michelle	-12.6227
▁suông	-12.6231
82	-12.6233
▁surface	-12.6238
▁lênh	-12.624
▁ngọ	-12.6241
▁vna	-12.6242
-25	-12.6242
▁ronaldinho	-12.6244
đuôi	-12.6245
ir	-12.6248
▁260	-12.6257
lọt	-12.6258
ps	-12.6258
▁18.000	-12.6264
▁sanh	-12.6265
▁sửng	-12.6266
▁bolton	-12.6266
▁nẻo	-12.6266
▁volkswagen	-12.6272
laden	-12.6273
chì	-12.6273
▁búi	-12.6275
gội	-12.6275
rợn	-12.6275
▁venus	-12.6276
▁đhqg	-12.6276
▁16/10	-12.6276
03	-12.6279
▁111	-12.6287
200	-12.6287
▁trọc	-12.6293
sôi	-12.6294
▁ngơ	-12.63
▁snowden	-12.6304
than	-12.6305
▁om	-12.6308
cống	-12.6311
▁cối	-12.6313
▁quai	-12.6316
quà	-12.6318
/3/2012	-12.6318
▁19/9	-12.6318
lụa	-12.6319
▁ắc	-12.6325
▁ắt	-12.6326
▁team	-12.6327
▁24/7	-12.6327
▁hắc	-12.6329
▁6/10	-12.6329
fan	-12.6331
▁royal	-12.6331
▁30/9	-12.6334
ngạt	-12.6338
náu	-12.6338
▁rô	-12.6341
▁carl	-12.6341
▁3,7	-12.6346
wei	-12.635
▁xước	-12.6356
▁bần	-12.6359
▁chicharito	-12.6362
▁tnxp	-12.6363
▁rũ	-12.6365
▁lotte	-12.6367
▁br	-12.637
▁bb	-12.637
▁hdmi	-12.637
▁kcna	-12.6372
sanh	-12.6374
▁birmingham	-12.6378
▁16/4	-12.6379
▁7/5	-12.638
nặng	-12.6382
▁121	-12.6386
west	-12.6394
▁tép	-12.6396
▁5/5	-12.6399
▁155	-12.6406
▁sabeco	-12.6412
dụm	-12.6412
trướng	-12.6413
▁kenya	-12.642
khung	-12.642
/10/2011	-12.6423
▁telecom	-12.6423
▁za	-12.6425
▁trầu	-12.6429
sy	-12.6431
▁16.000	-12.6441
▁chang	-12.6443
▁tiger	-12.6445
▁21/5	-12.6448
dặt	-12.6456
▁johnson	-12.6461
▁ren	-12.6465
▁8,5	-12.6466
▁nện	-12.6467
toản	-12.6469
▁honduras	-12.6474
trợn	-12.648
▁4.500	-12.6481
▁kristen	-12.6484
real	-12.6497
▁nhấc	-12.6498
hãm	-12.6506
▁um	-12.6521
lăk	-12.6522
wi	-12.6529
▁concert	-12.6535
▁xướng	-12.6535
▁dk	-12.6536
▁thaksin	-12.6538
▁ice	-12.6542
▁126	-12.6543
well	-12.6545
▁wanbi	-12.6546
▁122	-12.6548
▁emma	-12.6549
sar	-12.6551
tít	-12.6553
▁nuối	-12.6559
▁eden	-12.656
▁ppp	-12.6563
ut	-12.6567
▁chocolate	-12.6568
sục	-12.6568
▁lã	-12.657
-7	-12.6574
đệ	-12.6574
nhan	-12.6575
▁3-6	-12.6577
giày	-12.6579
rover	-12.6579
junior	-12.6586
luiz	-12.6588
▁jim	-12.6589
▁coc	-12.6602
họng	-12.6602
▁30-4	-12.6604
▁kdc	-12.6604
xâm	-12.6607
▁kl	-12.661
▁block	-12.661
ván	-12.6611
▁sharapova	-12.6612
▁165	-12.6613
▁tttm	-12.6614
▁toni	-12.6614
lanka	-12.6618
▁90.000	-12.6629
tát	-12.6632
▁ctg	-12.6635
club	-12.6636
▁sảy	-12.6641
ez	-12.6641
cruise	-12.6651
▁kiểng	-12.6653
▁vfa	-12.6653
lượn	-12.6654
▁23%	-12.666
▁il	-12.666
bel	-12.6662
▁sbd	-12.6664
▁kls	-12.6664
trêu	-12.6665
▁múi	-12.6671
▁jason	-12.6675
home	-12.6676
▁microsd	-12.668
ôn	-12.6681
yama	-12.6681
▁ơ	-12.6684
huân	-12.6684
▁7/10	-12.6685
cước	-12.6686
▁cội	-12.6686
ghen	-12.6694
tái	-12.6695
▁ngớ	-12.6695
▁năn	-12.6703
masters	-12.6707
▁brussels	-12.671
săn	-12.6718
▁13/9	-12.6719
▁rầy	-12.6721
girls	-12.6724
▁business	-12.6725
▁berbatov	-12.6727
▁lùng	-12.6729
▁baghdad	-12.6731
▁5.5	-12.6731
▁sin	-12.6738
▁13/7	-12.6739
▁0,5%	-12.6741
▁cii	-12.6744
rồ	-12.6755
▁optimus	-12.676
▁20/10	-12.6761
▁sk	-12.6764
ina	-12.6766
low	-12.6767
ụi	-12.6769
girl	-12.6775
,4	-12.6776
vãi	-12.6781
xuyến	-12.6782
▁oai	-12.6785
▁dv	-12.6786
/10/2010	-12.6787
▁com	-12.6788
tm	-12.6788
art	-12.6793
eva	-12.6795
ep	-12.6802
▁124	-12.6803
garden	-12.6804
▁hànôịmới	-12.6812
▁4/7	-12.6816
▁4/6	-12.6816
▁13/10	-12.6819
cor	-12.682
▁dìm	-12.682
nho	-12.6821
▁23/7	-12.6822
▁sha	-12.6826
thính	-12.6828
cẩu	-12.6828
yan	-12.6829
▁post	-12.683
▁3-3	-12.683
▁bưng	-12.6831
xây	-12.6832
hp	-12.6832
nồng	-12.6833
kềnh	-12.6836
/2004	-12.6837
▁tòng	-12.6837
ag	-12.6839
▁cameroon	-12.6842
▁fi	-12.685
▁5/6	-12.6856
bal	-12.6856
chọc	-12.6856
▁8/8	-12.6856
▁tậu	-12.6861
▁giroud	-12.6862
▁jetstar	-12.6865
xài	-12.6869
▁spurs	-12.6869
/12/2012	-12.687
▁tuỷ	-12.6875
▁cameron	-12.6876
▁đao	-12.6885
▁perez	-12.6887
-14	-12.6889
▁7/7	-12.6891
▁sggpo	-12.6895
▁paulo	-12.6895
▁bỉm	-12.6896
▁2.3	-12.6897
▁upcom	-12.69
fire	-12.6903
▁2.1	-12.6904
▁ì	-12.6906
▁thoạt	-12.6913
tiêm	-12.6914
/10	-12.6918
murray	-12.6922
▁tru	-12.6922
▁úng	-12.6924
nghé	-12.6925
chiếc	-12.6927
joon	-12.693
ft	-12.6931
-24	-12.6932
▁zidane	-12.6933
har	-12.6933
▁bậy	-12.6934
▁dpm	-12.6938
duệ	-12.694
▁cốm	-12.694
▁cienco	-12.6943
hiên	-12.6945
▁nicole	-12.6946
▁5/9	-12.695
▁fo	-12.6954
▁3,8	-12.6955
▁south	-12.6958
ul	-12.6962
ramos	-12.6969
vồng	-12.6973
des	-12.6978
▁luyến	-12.6986
▁disney	-12.6991
hong	-12.6991
▁hz	-12.6994
tễ	-12.6994
▁cole	-12.6997
mó	-12.6998
▁nề	-12.7
run	-12.7008
▁mẻ	-12.7008
▁blogger	-12.701
▁novak	-12.7012
▁patrick	-12.7013
▁pci	-12.7014
▁8.1	-12.7019
ky	-12.7021
dỏm	-12.7022
▁rapper	-12.7025
chạc	-12.7028
hs	-12.7028
djokovic	-12.7035
▁cph	-12.7043
hc	-12.7044
bird	-12.705
▁ah	-12.7053
▁yếm	-12.7055
-400	-12.7055
▁mesut	-12.7056
▁vespa	-12.7056
hãnh	-12.7061
▁1-6	-12.7062
▁benjamin	-12.7062
▁logic	-12.7062
mãnh	-12.7063
lần	-12.7064
▁thụt	-12.707
▁21%	-12.7072
joo	-12.7077
matteo	-12.7077
ngợm	-12.7081
▁bỡ	-12.7081
▁2-4	-12.7083
▁sả	-12.709
né	-12.709
▁somalia	-12.7095
▁alpha	-12.7098
nhõm	-12.7098
▁cứa	-12.71
▁gạ	-12.7102
▁jae	-12.7104
ngẩn	-12.7104
▁chanel	-12.7106
▁cadn	-12.7108
▁bentley	-12.7109
hae	-12.7109
▁4,2	-12.7111
fer	-12.7112
▁hpg	-12.7113
▁ttatgt	-12.7114
-52	-12.7122
▁bush	-12.7123
▁vơí	-12.7123
▁hoại	-12.7124
▁14.000	-12.7133
▁núp	-12.7136
▁ubck	-12.7139
▁kindle	-12.7144
▁mon	-12.7147
▁yoo	-12.7148
▁jerusalem	-12.7154
ròng	-12.7158
▁330	-12.7159
,9	-12.716
▁kts	-12.7175
▁camry	-12.7176
cày	-12.7177
▁hóm	-12.7178
▁17/10	-12.718
res	-12.7188
▁ray	-12.719
ur	-12.7191
af	-12.7192
dia	-12.7193
▁ùa	-12.72
lon	-12.7203
nu	-12.7203
cyrus	-12.7203
▁ix	-12.7207
▁22/6	-12.7211
▁gdck	-12.7213
phào	-12.7218
▁baby	-12.7219
ộm	-12.7222
▁15/7	-12.7222
▁fax	-12.7225
▁49%	-12.723
▁càphê	-12.723
▁gờm	-12.7234
pho	-12.7238
op	-12.7239
garros	-12.7242
▁cẳng	-12.7246
cù	-12.7255
▁hanh	-12.7255
▁clinton	-12.7256
▁cook	-12.7257
▁nhún	-12.7267
▁mễ	-12.7267
▁khuê	-12.7268
gl	-12.7269
▁512	-12.727
▁mướt	-12.7278
▁pm	-12.7281
▁thads	-12.7285
▁118	-12.7286
ning	-12.7287
▁3,3	-12.7293
ney	-12.7296
/1/2018	-12.7297
ngán	-12.7298
▁ku	-12.7299
vin	-12.7307
▁club	-12.7308
nậu	-12.7314
bờ	-12.7315
▁câm	-12.7321
▁ubtvqh	-12.7322
▁đậy	-12.7326
dr	-12.7333
▁ssd	-12.7334
▁te	-12.7339
cl	-12.7339
▁cavani	-12.7339
▁mk	-12.734
▁pla	-12.7347
▁liu	-12.7351
▁out	-12.7353
▁tầu	-12.7359
▁uất	-12.7361
alves	-12.7363
▁thặng	-12.7365
/11/2011	-12.7365
ey	-12.7366
▁pvi	-12.7367
hố	-12.7369
auto	-12.7369
win	-12.7369
her	-12.7383
▁17/4	-12.7383
▁win	-12.7384
▁1-4	-12.7388
▁free	-12.739
fabregas	-12.7393
▁hari	-12.7393
▁hip	-12.7394
-0	-12.7395
▁nai	-12.7398
▁qlda	-12.7403
▁fast	-12.7405
▁ngóng	-12.7405
▁lin	-12.7409
▁5-1	-12.7413
▁vạt	-12.7417
pl	-12.742
mão	-12.7426
▁hdbank	-12.7428
▁19/5	-12.743
ngách	-12.7431
▁mao	-12.7432
style	-12.7432
▁đong	-12.7434
▁22/11	-12.7436
mệt	-12.7437
▁99%	-12.7437
▁31/10	-12.7438
▁amg	-12.7438
▁chưng	-12.7444
/2013	-12.7446
▁quăng	-12.745
▁pirlo	-12.7452
▁phồn	-12.7454
mas	-12.7458
▁haiti	-12.7459
hill	-12.7462
▁cnvc	-12.747
potter	-12.7472
/12/2013	-12.7476
▁tróc	-12.7479
mini	-12.748
cameron	-12.748
▁brian	-12.7486
▁1959	-12.7492
▁3000	-12.7492
:00	-12.7493
▁novosti	-12.7494
▁2022	-12.7494
▁2,9	-12.7495
▁buốt	-12.7496
▁145	-12.7497
series	-12.7503
▁merkel	-12.7506
▁oh	-12.7506
▁ab	-12.7506
hực	-12.7507
▁21/8	-12.7509
sim	-12.751
hững	-12.7511
nộp	-12.7519
view	-12.7529
chốn	-12.7531
▁amy	-12.7534
▁dzeko	-12.7535
diết	-12.7535
▁sạm	-12.7537
ab	-12.7541
▁rỗng	-12.7543
▁nôi	-12.7545
ngưởng	-12.7545
phức	-12.7549
▁lác	-12.755
quỷ	-12.7557
▁qg	-12.7558
jean	-12.7558
ville	-12.7558
▁fellaini	-12.7562
▁logistics	-12.7565
▁virginia	-12.7571
▁ngẫm	-12.7571
seung	-12.7571
/12	-12.7576
/2018	-12.7582
▁ir	-12.7582
▁nao	-12.7583
bặm	-12.7586
hoắt	-12.7587
bọt	-12.7591
▁đút	-12.7595
▁độn	-12.76
tec	-12.7604
cap	-12.7605
▁lươn	-12.7605
▁1-7	-12.7607
▁mành	-12.7608
point	-12.761
▁1958	-12.7614
/2003	-12.762
ẹo	-12.7623
▁10/7	-12.7631
▁2011-2012	-12.7632
ể	-12.7632
link	-12.7633
▁chiêng	-12.7634
▁santa	-12.7636
▁golden	-12.764
▁2-9	-12.7644
paper	-12.7645
▁gameshow	-12.7648
cụt	-12.7654
▁roman	-12.7658
▁jin	-12.7666
▁24/8	-12.7667
/11/2012	-12.7668
▁medvedev	-12.7669
dè	-12.767
▁vừng	-12.7672
ary	-12.7673
▁tandtc	-12.7675
▁777	-12.7677
-29	-12.7677
▁omega	-12.7682
hẫng	-12.7684
đặng	-12.7688
▁ndh	-12.7691
▁0-3	-12.77
sea	-12.7702
facebook	-12.7702
▁luống	-12.7703
▁gán	-12.7706
▁nike	-12.7708
ví	-12.7708
▁llvt	-12.7708
ff	-12.7709
ngất	-12.7713
rock	-12.7718
▁138	-12.7721
▁kuwait	-12.7722
▁udinese	-12.7724
▁with	-12.7725
▁viktor	-12.7728
▁vib	-12.7732
▁đắn	-12.7732
▁leicester	-12.7732
▁vinacomin	-12.7735
▁hãnh	-12.774
▁5/10	-12.7744
▁22/9	-12.7748
ầm	-12.7749
▁bốt	-12.775
▁19%	-12.7765
▁sarah	-12.7767
▁lóng	-12.7769
▁hẻo	-12.7769
▁51%	-12.777
▁óng	-12.7772
▁photoshop	-12.7776
▁nín	-12.7777
vịnh	-12.7779
live	-12.7781
▁sảnh	-12.7784
▁tẻ	-12.7785
600	-12.7786
▁45.000	-12.779
▁thỏi	-12.7791
▁rưng	-12.7794
▁vẹn	-12.7794
▁body	-12.7797
▁phình	-12.7797
▁scr	-12.7801
▁2/5	-12.7801
,0	-12.7802
ov	-12.7808
▁galatasaray	-12.7808
▁maxi	-12.7809
ang	-12.7809
▁sấm	-12.7809
▁times	-12.7813
▁psy	-12.782
▁vcg	-12.782
play	-12.7822
-11	-12.7824
ơi	-12.7824
▁xhcn	-12.7826
berg	-12.7826
sú	-12.7829
▁phượt	-12.783
bến	-12.783
bb	-12.7838
/10/2009	-12.7838
gậy	-12.7842
phách	-12.7843
▁avg	-12.7846
▁okinawa	-12.7848
▁general	-12.7849
ngẩm	-12.7851
/2012	-12.7852
ino	-12.7856
-31	-12.7858
bói	-12.7859
▁mươi	-12.7859
▁diana	-12.7859
▁modric	-12.786
liu	-12.7862
oan	-12.7863
▁qng	-12.7864
jan	-12.7867
dồn	-12.7868
▁14/5	-12.7875
▁sứt	-12.7877
▁3/5	-12.7878
▁les	-12.7885
▁download	-12.7887
tiếu	-12.7887
nhai	-12.7888
▁55%	-12.7889
▁ces	-12.7894
ss	-12.7894
▁ừ	-12.79
▁ex	-12.7907
▁bob	-12.7908
kerr	-12.791
perez	-12.791
mè	-12.792
niu	-12.7923
kids	-12.7924
▁mic	-12.793
▁art	-12.793
▁0,8	-12.7936
▁1961	-12.7937
▁hongkong	-12.794
bosque	-12.7947
▁slovakia	-12.7948
▁tgđa	-12.7957
▁wembley	-12.7957
era	-12.796
▁21/11	-12.7963
▁abramovich	-12.7968
kyung	-12.7971
chừ	-12.7973
thoả	-12.7976
▁zimbabwe	-12.7981
▁6/7	-12.7981
suy	-12.7982
▁20/1	-12.7982
and	-12.7986
▁0,1	-12.7986
time	-12.7987
nhạy	-12.7989
nảy	-12.7993
▁vietgap	-12.7994
eb	-12.7994
▁kerry	-12.7995
▁phông	-12.7998
▁ss	-12.8002
sta	-12.8003
▁256	-12.8008
▁sê	-12.8009
▁hamburg	-12.801
▁15-20	-12.8012
▁ổi	-12.8014
▁owen	-12.8017
▁comment	-12.8017
luyến	-12.8018
nguyen	-12.8021
▁cor	-12.8022
rè	-12.8023
400	-12.8027
;	-12.8031
xoá	-12.8034
bướu	-12.8035
▁15/8	-12.8036
xo	-12.8041
quặc	-12.8043
▁buffon	-12.8043
,65	-12.8044
ris	-12.8046
▁eps	-12.8047
▁dt	-12.8047
-90	-12.8048
▁hừng	-12.8049
boy	-12.805
mg	-12.805
end	-12.8052
▁17.000	-12.8053
rong	-12.8056
▁sporting	-12.8059
nin	-12.8059
▁amd	-12.8059
ngỡ	-12.806
▁itunes	-12.8063
/2011	-12.8063
▁kcb	-12.8064
▁119	-12.8068
▁rocket	-12.8069
nôm	-12.8072
▁nhút	-12.8077
▁25/10	-12.8078
▁jica	-12.808
tấc	-12.8081
▁rose	-12.8082
▁jan	-12.8083
▁united	-12.8085
medvedev	-12.8086
/4/2014	-12.8087
▁29/5	-12.8088
▁oled	-12.8088
▁?...	-12.8095
▁chảnh	-12.8097
dragon	-12.8098
▁hezbollah	-12.81
▁vựa	-12.8105
▁pre	-12.8108
phiện	-12.8109
▁dc	-12.8111
gd	-12.8112
▁ks	-12.8113
▁2050	-12.8116
▁france	-12.8117
▁buýt	-12.8121
đệm	-12.8121
láng	-12.8121
mel	-12.8121
▁ivan	-12.8122
▁bvđk	-12.8128
▁3/2	-12.8129
▁28/7	-12.8132
ok	-12.8134
▁luke	-12.8141
xu	-12.8142
▁10.1	-12.8143
▁liga	-12.8144
▁bosnia	-12.8147
▁rục	-12.8147
..;	-12.8149
/4/2012	-12.8152
▁iceland	-12.8156
▁kw	-12.8163
mị	-12.817
rain	-12.8171
lừng	-12.8171
▁chốc	-12.8173
vá	-12.8174
▁bkav	-12.8175
▁350.000	-12.8176
/7/2013	-12.8177
/9/2010	-12.8179
cậu	-12.8179
rạch	-12.8187
ẩy	-12.8187
▁ngợi	-12.8189
tndn	-12.819
▁cật	-12.819
hop	-12.8191
▁catalonia	-12.8194
▁harper	-12.8196
▁24%	-12.8196
▁cnh	-12.8197
▁cbcnv	-12.8197
▁cris	-12.8197
trá	-12.82
▁28%	-12.8205
/2008	-12.8206
▁nhô	-12.8207
▁zhang	-12.8208
▁bửu	-12.8211
▁tmv	-12.8211
▁ptth	-12.8211
▁gplx	-12.8212
▁anne	-12.8212
▁mega	-12.8212
gold	-12.8213
▁iker	-12.8214
▁chạnh	-12.8215
hoe	-12.8216
▁0,7	-12.8221
▁5-0	-12.8222
heo	-12.8228
▁10/11	-12.8229
▁10/4	-12.823
all	-12.8234
0.000	-12.8237
▁pizza	-12.8239
crai	-12.824
▁sarkozy	-12.8241
▁át	-12.8243
▁tito	-12.8243
ova	-12.8247
▁12/10	-12.8248
ub	-12.8248
▁jonathan	-12.8249
▁nghêu	-12.8255
▁đtla	-12.8255
hê	-12.8257
▁uranium	-12.8259
rossi	-12.8264
▁30/8	-12.8264
▁tab	-12.8264
toái	-12.8266
▁18/11	-12.8269
▁30/7	-12.8272
tạ	-12.8274
▁nfc	-12.8276
▁26/10	-12.8276
▁doping	-12.828
/10/2013	-12.8281
▁francois	-12.8283
giáng	-12.8285
▁2.4	-12.829
▁berlusconi	-12.829
▁24/5	-12.8291
-60	-12.8293
▁đhđcđ	-12.8294
▁motor	-12.8296
chim	-12.8306
800	-12.8307
▁gắp	-12.8308
teen	-12.8311
▁julia	-12.8311
,75	-12.8312
▁bctc	-12.8312
▁tđ	-12.8313
thảy	-12.8318
mark	-12.8318
▁đoá	-12.8319
edition	-12.8323
▁susan	-12.8327
▁wa	-12.8329
▁cscđ	-12.8331
▁11/7	-12.8331
/5/2012	-12.8333
▁stuttgart	-12.8334
▁chĩa	-12.8335
▁thong	-12.8338
▁yểm	-12.8345
▁27/4	-12.8345
▁đờn	-12.8349
phật	-12.835
blade	-12.8351
▁2012-2013	-12.8354
▁lđtbxh	-12.8354
▁elly	-12.8355
tic	-12.8357
▁11/11	-12.8358
doan	-12.8362
▁29/4	-12.8362
xịt	-12.8365
lỏi	-12.8366
mắng	-12.8369
▁rap	-12.8369
▁arm	-12.8383
▁jon	-12.8387
▁1/9	-12.8387
▁29/3	-12.839
▁chổi	-12.8407
ngực	-12.841
▁sẫm	-12.8413
mích	-12.8418
▁mĩ	-12.8419
▁lánh	-12.8421
mac	-12.8427
xp	-12.8437
▁26%	-12.8438
khôn	-12.844
▁coupe	-12.844
cọ	-12.8442
/5/2010	-12.8445
▁31/3	-12.8445
,5	-12.8447
▁28/10	-12.8448
▁132	-12.8453
▁10/9	-12.8454
▁miến	-12.8458
▁21/7	-12.8459
tiệc	-12.8461
▁marca	-12.8461
▁ỷ	-12.8461
▁nhuần	-12.8464
kardashian	-12.8465
▁chạp	-12.8466
▁850	-12.8466
▁high	-12.8469
côn	-12.8471
▁mè	-12.8476
▁380	-12.8478
▁nghiệt	-12.8481
▁petr	-12.8482
-2006	-12.8483
▁eib	-12.8483
▁nháy	-12.8488
▁taekwondo	-12.8489
▁134	-12.8489
nou	-12.8491
▁cq	-12.8496
▁madonna	-12.8496
▁18/8	-12.8498
goetz	-12.8503
dẻ	-12.8504
resort	-12.8504
vọt	-12.8505
-12	-12.8505
/11/2013	-12.8516
▁27%	-12.8517
▁joseph	-12.8522
búa	-12.8524
▁đùm	-12.8527
china	-12.8531
▁ói	-12.8537
ae	-12.8537
xám	-12.8539
năn	-12.8539
▁bcđ	-12.854
▁xabi	-12.8541
▁pvs	-12.8541
▁ngai	-12.8543
tí	-12.8544
nhịn	-12.8545
▁happy	-12.8546
ớ	-12.8548
▁cọp	-12.855
▁anderson	-12.8551
▁etf	-12.8552
▁nhảm	-12.8552
▁matt	-12.8553
62	-12.8555
▁xoang	-12.8558
▁bàu	-12.8559
▁hươu	-12.8561
▁vảy	-12.8563
▁vali	-12.8563
▁26/3	-12.8564
▁2.9	-12.8565
ee	-12.8568
▁25/5	-12.8568
▁er	-12.8573
nà	-12.8575
xỉn	-12.8578
war	-12.858
▁toquoc	-12.8581
edu	-12.8585
america	-12.8589
eng	-12.8589
▁samba	-12.859
▁28/6	-12.8591
▁phả	-12.8595
▁hull	-12.8598
io	-12.8601
game	-12.8602
▁29/11	-12.8603
▁nt	-12.8605
▁khấn	-12.8605
bửu	-12.8607
▁rafa	-12.861
giai	-12.8611
▁xoan	-12.8612
khóc	-12.8618
▁khedira	-12.8623
▁ultrabook	-12.8626
▁casting	-12.863
▁gio	-12.8633
▁20/9	-12.8634
mun	-12.8634
▁3/7	-12.8636
thử	-12.8636
▁pvd	-12.8638
▁nắn	-12.8638
/5/2011	-12.8642
▁christopher	-12.8642
đậy	-12.8646
ẹt	-12.8649
▁grammy	-12.865
tốt	-12.8653
express	-12.8654
▁falko	-12.8654
-2018	-12.8659
▁dnnvv	-12.8659
par	-12.8661
đố	-12.8666
▁túng	-12.8667
dễ	-12.867
▁19/11	-12.867
tảo	-12.8672
▁view	-12.8673
▁29/7	-12.8674
▁4,8	-12.8679
▁sl	-12.8682
vút	-12.8683
xơ	-12.8688
▁midu	-12.8689
▁marie	-12.8693
tion	-12.8696
tz	-12.87
chip	-12.8703
▁ngột	-12.8703
▁bali	-12.871
▁aaron	-12.8713
▁bđkh	-12.8713
▁kiệu	-12.8714
cuông	-12.8715
▁panama	-12.8716
▁ana	-12.8718
▁0,6	-12.8719
▁chavez	-12.8719
morning	-12.8725
▁thiều	-12.8726
▁bilbao	-12.8729
dột	-12.873
▁guardian	-12.8731
▁hsg	-12.8733
tro	-12.8737
▁sụn	-12.8739
▁11/10	-12.8739
/10/2012	-12.8742
▁howard	-12.8742
,6	-12.8743
dn	-12.8745
▁27/9	-12.8751
bean	-12.8754
mướn	-12.8755
▁fe	-12.8755
/5	-12.8759
▁16/6	-12.8761
▁philip	-12.8761
az	-12.8763
▁131	-12.8763
▁7/8	-12.8766
▁cún	-12.8767
▁fpts	-12.8768
▁kan	-12.8769
▁143	-12.8771
▁20/8	-12.8771
▁1/11	-12.8775
cuối	-12.8775
▁nghẽn	-12.8775
▁ngải	-12.8777
▁tiệp	-12.8778
▁31/7	-12.8778
▁30/11	-12.8778
/5/2014	-12.8782
▁ngốc	-12.8783
▁michel	-12.8783
khăng	-12.8787
▁ctv	-12.8788
700	-12.8789
▁1956	-12.8789
road	-12.8794
casillas	-12.8795
chậm	-12.8801
vía	-12.8802
▁dột	-12.8806
▁latin	-12.8809
▁pô	-12.8812
▁vần	-12.8812
▁nỡ	-12.8813
▁ballad	-12.8823
▁frankfurt	-12.8824
gaza	-12.8824
cech	-12.8825
▁6/4	-12.8828
▁inc	-12.883
chát	-12.8834
ị	-12.8836
▁data	-12.8839
▁vặn	-12.8839
mall	-12.8843
▁29/9	-12.8849
jr	-12.885
▁es	-12.8851
▁bio	-12.8851
▁19/8	-12.8852
xước	-12.8852
▁gonzalo	-12.8853
▁mclaren	-12.8853
▁seo	-12.8854
▁tnmt	-12.8855
▁hú	-12.8855
/4/2011	-12.8857
▁3.2	-12.8866
cher	-12.8874
fox	-12.8878
▁netbook	-12.8878
▁tunisia	-12.8888
▁167	-12.8889
▁truất	-12.8892
▁pra	-12.89
john	-12.8901
▁gmail	-12.8903
▁ôxy	-12.8904
▁hđba	-12.8904
▁điểu	-12.8906
▁ngặt	-12.8907
bak	-12.8909
▁8/6	-12.8911
,25	-12.8915
▁oppo	-12.8916
cui	-12.8918
▁boong	-12.892
▁size	-12.892
ozil	-12.8922
▁ce	-12.8922
xem	-12.8923
timor	-12.8924
paul	-12.8924
đùi	-12.8926
▁giục	-12.8926
hùm	-12.8928
eto	-12.8928
▁129	-12.8928
▁beyonce	-12.8929
▁8/10	-12.8931
▁alves	-12.8932
▁sapa	-12.8933
thệ	-12.8934
▁ngốn	-12.8939
▁ngách	-12.8942
mat	-12.8943
▁huống	-12.8943
▁petro	-12.8943
hazard	-12.8946
đu	-12.8949
▁ton	-12.8953
▁tơi	-12.8953
▁ngươì	-12.8953
ngây	-12.8954
▁6/5	-12.8956
/7/2012	-12.8957
▁2013-2014	-12.8959
pô	-12.896
▁gỏi	-12.8971
▁thét	-12.8974
▁nhếch	-12.8975
▁16/9	-12.8977
▁blu	-12.8977
▁gp	-12.8978
▁exo	-12.8984
▁lìa	-12.899
▁9,5	-12.8992
▁10/3	-12.8992
▁emmanuel	-12.8992
tuyệt	-12.8997
▁nepal	-12.8999
▁luiz	-12.9002
▁skype	-12.9002
▁suri	-12.9008
▁15/6	-12.9008
▁ivanovic	-12.9009
gần	-12.9011
dor	-12.9014
tím	-12.9021
▁1957	-12.9021
nm	-12.9025
▁hớ	-12.9025
▁420	-12.9026
▁albert	-12.9027
ita	-12.9027
week	-12.903
▁bịch	-12.9032
▁hyun	-12.9035
▁morgan	-12.9036
sp	-12.9036
james	-12.9038
▁leverkusen	-12.9041
:30	-12.9042
ngác	-12.9043
cúp	-12.9044
/9/2012	-12.9049
▁gien	-12.9052
▁tkcn	-12.9054
/12/2017	-12.9056
▁kyodo	-12.9057
▁bvsc	-12.906
▁sỉ	-12.9063
buồm	-12.9068
▁laurent	-12.9072
▁puyol	-12.9073
/6/2010	-12.9085
▁199	-12.9086
saudi	-12.9086
/3/2011	-12.909
▁lả	-12.909
▁venice	-12.9091
lar	-12.9093
▁tuôn	-12.9094
quáng	-12.9094
▁back	-12.9101
chích	-12.9102
▁jolie	-12.9103
joong	-12.9107
▁sara	-12.9108
phù	-12.9112
▁vec	-12.9115
mồi	-12.9116
▁12/9	-12.9116
/2/2012	-12.9118
▁vc	-12.9121
▁27/7	-12.9121
▁2009-2010	-12.9121
▁9/10	-12.9124
photo	-12.9124
▁đùng	-12.9129
▁hột	-12.9132
ichi	-12.9134
▁mirror	-12.9137
▁nhỡ	-12.9141
ena	-12.9144
tước	-12.9149
▁tã	-12.915
▁ntc	-12.9151
▁gel	-12.9153
beach	-12.916
thôi	-12.9161
▁megastar	-12.9162
▁her	-12.9165
cưỡng	-12.9167
▁25/8	-12.9169
▁nè	-12.9169
-13	-12.9171
▁nhuệ	-12.9174
▁136	-12.9177
▁rụt	-12.9178
▁entertainment	-12.9183
▁jamie	-12.9184
▁vờ	-12.9184
▁rông	-12.9184
mất	-12.9187
▁lõm	-12.9192
▁tae	-12.9197
khỉnh	-12.92
sia	-12.9207
rịch	-12.9209
▁0,1%	-12.9211
bc	-12.9212
chăn	-12.9212
▁139	-12.9212
▁tncn	-12.9214
▁phất	-12.9216
▁ag	-12.9217
/7/2011	-12.9218
▁eco	-12.9223
▁luồn	-12.9223
▁gòn	-12.923
▁dragon	-12.923
/1/2012	-12.9231
mah	-12.9231
lột	-12.9234
ric	-12.9235
bor	-12.9237
▁national	-12.9238
phồng	-12.9241
▁billboard	-12.9241
▁ngạch	-12.9241
▁10/1	-12.9243
▁4.5	-12.9243
▁vsattp	-12.9246
dẫm	-12.925
▁7/6	-12.9251
▁brown	-12.9253
▁5,2	-12.9253
rìa	-12.9254
▁4,6	-12.9254
▁shoot	-12.9255
▁kẻo	-12.9257
▁copy	-12.9258
▁sina	-12.9258
▁27/10	-12.9259
▁vò	-12.9262
▁6/2	-12.9263
lức	-12.9264
nhuệ	-12.9265
fo	-12.9267
▁ducati	-12.9267
▁30/3	-12.9269
▁14/3	-12.927
wall	-12.9271
tòng	-12.9272
hơn	-12.9274
sv	-12.9274
▁hud	-12.9276
▁mafia	-12.9277
ớp	-12.9277
card	-12.9278
▁sturridge	-12.9281
insider	-12.9281
▁28/5	-12.9287
thê	-12.9289
nic	-12.9291
hyo	-12.9292
▁hollande	-12.9294
pm	-12.9296
rơ	-12.9296
▁9/7	-12.9296
▁142	-12.9297
đùng	-12.9297
▁sudan	-12.9298
▁133	-12.93
▁ubmttq	-12.9303
▁2-6	-12.9304
ã	-12.9307
▁dani	-12.9308
▁mọng	-12.9309
▁opec	-12.9314
▁4-3	-12.9315
khống	-12.9319
▁off	-12.9321
▁sg	-12.9322
xở	-12.9324
▁market	-12.9324
▁carrick	-12.9326
▁id	-12.9326
ốm	-12.9334
stein	-12.9336
▁11/3	-12.9337
▁hkphone	-12.9339
▁nham	-12.9346
▁thx	-12.9347
▁14/4	-12.9347
▁rê	-12.9348
▁17/11	-12.9348
miếng	-12.935
▁kabul	-12.9351
lự	-12.9351
▁elle	-12.9353
▁5000	-12.9353
▁oc	-12.9357
▁ổng	-12.9357
corp	-12.9359
td	-12.9362
▁sững	-12.9362
▁xâu	-12.9364
quýt	-12.9364
▁camp	-12.9364
amin	-12.9364
▁28/4	-12.937
rie	-12.9371
▁megan	-12.9372
▁hèn	-12.9377
lohan	-12.9378
▁xd	-12.9383
▁wonder	-12.9384
alba	-12.9385
chè	-12.9387
cty	-12.9387
▁hoạn	-12.9392
ui	-12.9392
▁tmđt	-12.9393
thía	-12.9394
▁17/5	-12.9397
▁vasep	-12.9398
kệ	-12.9398
▁diesel	-12.9399
▁1930	-12.94
▁epa	-12.9401
▁171	-12.9403
▁gangnam	-12.9403
▁13/6	-12.9404
▁dỗ	-12.9405
▁lèo	-12.9407
▁toronto	-12.9409
▁gẫy	-12.9409
pp	-12.9418
▁romney	-12.9422
▁33%	-12.9424
balotelli	-12.9424
▁chộp	-12.9427
▁7/11	-12.9429
nấu	-12.9429
▁26/4	-12.943
▁27/6	-12.943
▁7/2	-12.9431
▁15/1	-12.9437
▁yo	-12.9437
▁ngót	-12.944
▁kilo	-12.9446
▁giãi	-12.945
▁lửng	-12.9452
▁ntnn	-12.9452
taylor	-12.9452
▁para	-12.9454
/7/2014	-12.9456
▁ramires	-12.9456
▁pk	-12.9457
▁ama	-12.9458
key	-12.9462
▁1,5%	-12.9464
/7/2010	-12.9465
▁tuồn	-12.9466
▁queen	-12.9466
trust	-12.9468
geun	-12.9477
▁lồi	-12.9478
▁eun	-12.9481
▁nikkei	-12.9486
tevez	-12.9488
cóp	-12.949
▁dùi	-12.949
mời	-12.9493
thớt	-12.9494
tray	-12.9494
ari	-12.9499
▁đna	-12.9499
▁international	-12.95
▁halloween	-12.9501
▁didier	-12.9505
▁rob	-12.9505
3,5	-12.9509
▁guinness	-12.951
tuộc	-12.9511
▁banh	-12.9511
▁1.000.000	-12.9512
,00	-12.9513
▁2/6	-12.9516
▁chẻ	-12.9521
▁lhpn	-12.9521
▁lavrov	-12.9526
▁alvaro	-12.9526
▁munich	-12.9527
▁thò	-12.9527
▁2010-2011	-12.953
▁17/8	-12.9533
▁sharp	-12.9534
▁16/3	-12.9535
▁144	-12.9536
▁9/9	-12.9541
▁22/5	-12.9541
▁diamond	-12.9543
▁29/6	-12.9543
▁16/5	-12.9545
▁hv	-12.9548
▁lẻn	-12.9553
▁jackson	-12.9574
nhuyễn	-12.9574
/11	-12.958
eh	-12.9583
▁9/11	-12.9583
▁0,9	-12.9585
▁joachim	-12.9585
▁innova	-12.9587
▁gruzia	-12.9596
▁ganh	-12.9599
pra	-12.9599
/4	-12.9602
bính	-12.9603
▁5/8	-12.9607
sing	-12.9607
/9/2011	-12.9607
▁melbourne	-12.9612
giếm	-12.9612
▁lille	-12.9619
▁sến	-12.962
▁key	-12.9622
mil	-12.9622
trịnh	-12.9626
▁15/3	-12.9629
nghén	-12.963
▁héo	-12.963
/20	-12.9632
thẻ	-12.9633
cò	-12.9633
ì	-12.9634
garcia	-12.9639
giỏi	-12.964
▁460	-12.9642
ờ	-12.9644
sto	-12.9648
▁6/8	-12.9649
nhang	-12.965
citizens	-12.9655
▁check	-12.9657
▁espanyol	-12.9663
ist	-12.9666
rưng	-12.9668
▁168	-12.967
-47	-12.9671
▁3,1	-12.9672
▁đanh	-12.9678
hanh	-12.9679
▁lđtb	-12.9685
▁340	-12.9686
▁fred	-12.9689
▁25/3	-12.9691
▁robinho	-12.9694
▁phone	-12.9695
ef	-12.9696
▁bả	-12.9698
▁lọn	-12.9701
▁iu	-12.9704
▁28/3	-12.9704
▁12/7	-12.9704
hernandez	-12.9705
mương	-12.9706
▁ankara	-12.9707
▁13/1	-12.9708
▁mỉa	-12.971
▁bủa	-12.971
blancos	-12.9711
▁26/6	-12.9711
▁0,2%	-12.9713
nắng	-12.9714
▁kara	-12.9714
▁10-15	-12.9715
wang	-12.9718
▁liberty	-12.9727
ld	-12.9728
▁bới	-12.9731
ito	-12.9737
▁520	-12.9741
▁8/7	-12.9742
▁vét	-12.9743
▁xúi	-12.9743
▁axít	-12.9744
▁éo	-12.9744
▁11/6	-12.9753
▁borussia	-12.9754
▁helen	-12.9755
▁13/5	-12.9756
▁demi	-12.9756
▁tnt	-12.9757
/8/2011	-12.9761
ros	-12.9761
▁cx	-12.9761
▁32%	-12.9766
▁kai	-12.9767
nguyền	-12.9771
▁gar	-12.9772
-981	-12.9775
▁abs	-12.9777
▁rs	-12.9782
▁8-10	-12.9783
din	-12.9785
break	-12.979
▁1900	-12.979
▁14/11	-12.9791
▁people	-12.98
cal	-12.9803
▁1/12	-12.9805
/6/2014	-12.9806
900	-12.9807
▁first	-12.9808
touch	-12.9809
back	-12.981
▁21/4	-12.981
▁xắt	-12.981
bit	-12.9812
▁16/8	-12.9812
▁lận	-12.9813
▁ramsey	-12.9815
▁gióng	-12.9822
▁giẫm	-12.9825
lt	-12.9826
▁ros	-12.9826
▁becamex	-12.9827
▁startup	-12.9831
▁isco	-12.9834
▁jeff	-12.9837
mún	-12.9838
▁jane	-12.9838
▁xỉ	-12.9838
dt	-12.984
▁9/1	-12.9841
▁vogue	-12.9844
ei	-12.9846
if	-12.9847
▁lẳng	-12.9847
▁jones	-12.9848
▁xbox	-12.9848
▁cấn	-12.985
▁đcsvn	-12.9853
▁36%	-12.9853
▁30/5	-12.9857
▁cambridge	-12.9858
▁pasteur	-12.9858
▁copa	-12.986
eri	-12.9863
▁đs	-12.9863
▁marathon	-12.9863
khuyến	-12.9863
▁1953	-12.9866
▁30-6	-12.9866
mal	-12.9868
▁2.200	-12.9872
▁offline	-12.9875
dortmund	-12.9876
▁sunni	-12.9877
▁virut	-12.9881
school	-12.9881
đòi	-12.9883
castro	-12.9884
▁kháu	-12.9885
▁titanic	-12.9886
▁nuột	-12.9887
▁cạp	-12.9889
▁nghiến	-12.989
italia	-12.989
▁15/11	-12.9892
▁5/4	-12.9898
lis	-12.9898
▁pico	-12.9898
▁rex	-12.9899
ik	-12.9904
đẫm	-12.9904
ạch	-12.9904
▁kagawa	-12.9909
▁ngông	-12.9911
▁giời	-12.9913
▁14/6	-12.9913
▁timothy	-12.9914
dĩnh	-12.9922
▁seung	-12.9923
core	-12.9924
gas	-12.9924
▁paraguay	-12.993
sào	-12.9933
▁há	-12.9938
holmes	-12.9943
▁thaco	-12.9947
▁bts	-12.9948
gánh	-12.9951
▁trĩ	-12.9952
rạc	-12.9956
▁-1	-12.9959
▁siri	-12.9961
▁genoa	-12.9964
chóc	-12.9966
▁000	-12.9966
aviv	-12.9967
ngút	-12.9968
▁bc	-12.997
liếng	-12.9971
▁nguyen	-12.9979
ởi	-12.9981
▁piaggio	-12.9981
mancini	-12.9983
▁1920	-12.9984
▁miu	-12.9985
▁ie	-12.9987
▁26/9	-12.9988
ala	-12.999
tes	-12.9993
factor	-12.9998
aguero	-12.9999
▁3/9	-13.0002
lốt	-13.0002
▁bl	-13.0002
▁tề	-13.0002
▁levante	-13.0003
▁getafe	-13.0005
▁mas	-13.0007
khoang	-13.001
▁mel	-13.0013
▁des	-13.0015
▁interpol	-13.0018
gerrard	-13.0022
▁ft	-13.0023
/3/2010	-13.0023
▁angola	-13.0026
▁hích	-13.0027
▁aleppo	-13.003
▁palermo	-13.0038
/4/2010	-13.0043
▁gabriel	-13.0043
▁đuốc	-13.0043
▁room	-13.0046
vôi	-13.0046
▁moi	-13.0048
▁bolivia	-13.0048
tổn	-13.0055
▁thự	-13.0055
▁pg	-13.0055
▁mohammed	-13.0058
hen	-13.0059
▁nbc	-13.0059
▁bít	-13.0061
▁6/12	-13.0061
/3/2014	-13.0065
germain	-13.0066
▁4.2	-13.0066
quí	-13.0067
đục	-13.0067
▁mút	-13.0069
▁ver	-13.0075
▁cmc	-13.0081
▁nứa	-13.0083
▁5,6	-13.0088
nhì	-13.009
▁mahmoud	-13.0092
▁9/4	-13.0097
▁147	-13.0097
▁adriano	-13.01
hoon	-13.01
ix	-13.01
▁5/12	-13.01
▁maps	-13.0103
▁trans	-13.0107
lẽo	-13.0109
▁24/10	-13.011
▁laden	-13.0111
▁hecta	-13.0112
▁phom	-13.0112
▁rúng	-13.0113
▁hớt	-13.0118
▁pet	-13.012
/10/2017	-13.0122
diệc	-13.0122
▁port	-13.0123
▁phèn	-13.0128
▁anti	-13.0129
▁6/6	-13.0129
▁oán	-13.013
▁dailymail	-13.0134
▁thoi	-13.0136
luông	-13.0137
▁kbc	-13.0138
rose	-13.0139
▁allianz	-13.0139
▁ips	-13.014
▁9/8	-13.0141
lia	-13.0145
▁nct	-13.0148
cán	-13.0149
▁revo	-13.015
▁thvn	-13.0154
bri	-13.0156
▁vạ	-13.0161
▁tnvn	-13.0162
dừa	-13.0164
▁williams	-13.0167
▁6-8	-13.017
▁yan	-13.0171
▁bổn	-13.0172
▁bảnh	-13.0173
stewart	-13.0175
▁luẩn	-13.0176
▁bruno	-13.0179
▁bordeaux	-13.0181
▁face	-13.0181
▁bính	-13.0181
▁dậu	-13.0182
▁georgia	-13.0182
▁deir	-13.0182
▁gạc	-13.0184
▁22.000	-13.0185
▁2/4	-13.0187
▁25/2	-13.0188
▁153	-13.0189
▁nikon	-13.0192
▁trá	-13.0193
▁pierre	-13.0193
đổng	-13.0197
▁pele	-13.0198
▁98%	-13.0199
qa	-13.02
▁vồ	-13.02
▁tấc	-13.0203
▁tía	-13.0204
▁28/11	-13.0204
▁bét	-13.0206
▁185	-13.0207
▁6/3	-13.0209
lề	-13.021
▁17/1	-13.0211
▁4.3	-13.0217
nớt	-13.0217
hói	-13.0218
▁14/10	-13.0218
▁flappy	-13.0219
▁anthony	-13.0221
ig	-13.0223
▁gáo	-13.0223
▁jorge	-13.0225
▁sbj	-13.0226
▁0,3%	-13.0232
lie	-13.0233
▁-0	-13.0236
bd	-13.0238
▁osasuna	-13.0238
scholes	-13.0239
ruồi	-13.0239
clasico	-13.0242
▁tanh	-13.0243
▁hđtv	-13.0244
▁4/4	-13.0245
▁kaspersky	-13.0245
▁mướp	-13.0245
/5/2013	-13.0246
press	-13.0254
úc	-13.0255
▁tạc	-13.0257
ice	-13.0259
▁wilshere	-13.0262
kahn	-13.0269
▁nhím	-13.027
nhăng	-13.027
▁giùm	-13.0271
▁27/3	-13.0274
đấm	-13.0274
od	-13.0277
▁137	-13.0279
ợ	-13.0281
▁mascherano	-13.0284
▁bella	-13.0286
▁tựu	-13.0287
▁13/4	-13.029
▁ttcn	-13.0291
nhờ	-13.0293
gor	-13.0294
▁gpu	-13.0297
▁23/6	-13.0299
▁savills	-13.03
▁10-12	-13.03
▁good	-13.0302
▁lỳ	-13.0304
▁keangnam	-13.0306
▁180.000	-13.0311
die	-13.0312
▁morata	-13.0312
▁12/12	-13.0313
▁aaa	-13.0318
,19	-13.0318
▁cậy	-13.0322
shaw	-13.0324
▁4.1	-13.0327
/11/2017	-13.0329
ring	-13.0331
▁biếng	-13.0336
▁sputnik	-13.0337
▁iss	-13.0341
▁10/12	-13.0341
-01	-13.0345
▁neil	-13.0349
▁viglacera	-13.0349
▁sán	-13.035
cat	-13.0354
▁10-10	-13.0357
▁sc	-13.0357
▁goá	-13.0362
▁leon	-13.0362
▁30-40	-13.0363
ski	-13.0364
rợ	-13.0365
▁148	-13.0366
▁sergey	-13.0367
sal	-13.0368
▁146	-13.0369
▁8/5	-13.0371
▁sing	-13.0373
▁matthew	-13.0375
▁thót	-13.0379
▁tba	-13.038
▁11/5	-13.0384
▁12/5	-13.0384
▁15-9	-13.0384
▁4,4	-13.0387
▁1946	-13.039
đáu	-13.039
ngoai	-13.039
▁19/1	-13.0403
ruổi	-13.0405
pôn	-13.0406
▁5,3	-13.0409
▁xklđ	-13.0411
ngẩng	-13.0412
nhựa	-13.0414
▁1955	-13.0414
niệu	-13.0414
iya	-13.0416
▁vđ	-13.0417
▁18/2	-13.0419
▁kkt	-13.0419
▁10/8	-13.0423
ất	-13.0429
▁rôm	-13.0432
▁samson	-13.0434
▁gcn	-13.0434
,50	-13.0435
▁kennedy	-13.0437
/2	-13.0439
▁7.5	-13.0441
▁16/7	-13.0441
▁iron	-13.0441
▁31/5	-13.0444
▁adidas	-13.0446
▁vingroup	-13.0446
hilton	-13.0446
▁celtic	-13.0447
xd	-13.0449
gon	-13.0449
ell	-13.0452
▁fb	-13.0454
▁911	-13.0461
▁rain	-13.0461
▁hến	-13.047
▁vơ	-13.0473
▁22/3	-13.0473
thuyên	-13.0475
▁estrogen	-13.0481
▁2.8	-13.0486
▁abhisit	-13.0487
cv	-13.0489
▁25/9	-13.0493
nua	-13.0494
▁podolski	-13.0498
▁az	-13.0499
▁20-30	-13.0502
▁ubcknn	-13.0504
).	-13.0505
▁8/9	-13.0506
/2012/	-13.0506
▁ngo	-13.0507
vãng	-13.0507
/3	-13.0515
shan	-13.0516
qh	-13.0517
▁dầy	-13.0517
▁săm	-13.0519
▁sur	-13.0531
▁156	-13.0534
▁én	-13.0535
chém	-13.0538
dỗi	-13.0539
▁130.000	-13.0539
▁38%	-13.0543
sệt	-13.0544
căng	-13.0544
▁hũ	-13.0549
▁dấm	-13.0551
▁gerard	-13.0551
universe	-13.0552
/6/2012	-13.0553
tia	-13.0555
▁nặn	-13.0555
snowden	-13.0562
hodgson	-13.0568
▁12/1	-13.0572
washington	-13.0574
▁code	-13.0575
▁wu	-13.0575
ngòi	-13.058
lp	-13.0581
rẩy	-13.0582
hỗ	-13.0583
▁scholes	-13.0585
▁vama	-13.0586
▁ttcp	-13.0587
bus	-13.0587
▁shs	-13.0587
▁4/12	-13.059
▁tone	-13.0591
▁xíu	-13.0593
ea	-13.0595
▁4,9	-13.0602
▁gil	-13.0603
hửng	-13.0603
▁morsi	-13.0604
▁joong	-13.0605
dd	-13.0605
▁thướt	-13.0607
▁6/11	-13.0608
,68	-13.0608
ess	-13.0609
▁25/6	-13.0617
tẩy	-13.0618
ive	-13.0618
▁khxh	-13.0618
▁7-10	-13.0619
▁13,5	-13.062
▁salon	-13.062
▁vắcxin	-13.0625
▁6-0	-13.0626
▁15/12	-13.0629
▁selfie	-13.0629
▁7,2	-13.063
ericsson	-13.0633
▁rèm	-13.0635
▁thừng	-13.0637
▁vênh	-13.0638
▁par	-13.0639
▁hớn	-13.0641
▁karim	-13.0641
▁ultra	-13.0642
ies	-13.0643
▁1/2013	-13.0645
▁rom	-13.0646
▁bự	-13.0647
ller	-13.0647
▁nhen	-13.065
▁tròng	-13.0652
▁let	-13.0653
▁burnley	-13.0659
▁focus	-13.0659
nháo	-13.0662
nới	-13.0668
trề	-13.0668
â	-13.067
ná	-13.0674
night	-13.0675
vặn	-13.0676
▁je	-13.0677
tao	-13.0678
▁nylon	-13.0678
▁vinatex	-13.0684
▁oa	-13.0684
▁9/12	-13.069
▁bel	-13.0691
▁she	-13.0692
▁neuer	-13.0694
composite	-13.07
suyễn	-13.0701
rả	-13.0705
▁war	-13.0707
▁ocean	-13.0708
vươn	-13.071
▁23/5	-13.0714
gin	-13.0717
phất	-13.0724
chằng	-13.0725
▁cech	-13.0725
▁desire	-13.0726
▁8/11	-13.0726
las	-13.0728
martinez	-13.073
bilbao	-13.073
rr	-13.0733
kit	-13.0737
zy	-13.0737
▁masan	-13.0738
xình	-13.0739
ste	-13.0739
/6	-13.0741
▁31%	-13.0742
▁22/2	-13.0742
dũ	-13.0743
▁massachusetts	-13.0744
▁vicente	-13.0744
/8/2012	-13.0744
mít	-13.075
gân	-13.0753
zar	-13.0755
.5%	-13.0756
niê	-13.0758
▁vicem	-13.076
▁gucci	-13.0762
ois	-13.0766
cưu	-13.0772
hollande	-13.0774
▁sần	-13.0774
▁orlando	-13.0776
/12/2010	-13.0779
▁vanessa	-13.078
▁nệm	-13.078
ud	-13.0784
▁ter	-13.0784
▁gài	-13.079
ico	-13.0792
band	-13.0793
▁290	-13.0796
enko	-13.0796
▁wushu	-13.0798
▁vpbank	-13.0799
▁6,7	-13.08
▁ze	-13.0801
đn	-13.0801
/12/2009	-13.0803
▁chừ	-13.0804
suối	-13.0804
xay	-13.0804
▁jimmy	-13.0805
▁toilet	-13.0806
▁your	-13.0806
mốc	-13.0807
port	-13.0808
▁9/6	-13.0809
bat	-13.0809
tản	-13.0809
white	-13.0809
▁ráng	-13.0811
▁nhừ	-13.0818
▁nole	-13.0819
▁thiếp	-13.0822
vò	-13.0826
lầy	-13.0828
sel	-13.0828
nhản	-13.083
▁vqg	-13.0831
kon	-13.0831
▁mcdonald	-13.0832
ball	-13.0836
▁night	-13.0837
í	-13.0837
/6/2017	-13.084
▁adebayor	-13.084
/1/2013	-13.0841
/11/2009	-13.0841
ow	-13.0847
▁bhtn	-13.0847
▁cska	-13.0849
▁julio	-13.0853
usa	-13.0857
▁event	-13.086
▁fashion	-13.0861
side	-13.0864
▁tccn	-13.0867
reo	-13.0868
/6/2011	-13.0868
tass	-13.087
▁maritime	-13.0874
▁compact	-13.0876
-30%	-13.0879
đênh	-13.0881
▁lạy	-13.0881
gue	-13.0882
▁ngước	-13.0882
cia	-13.0883
▁158	-13.0883
xinh	-13.0885
mus	-13.0887
▁chùn	-13.0888
lip	-13.0889
chặt	-13.0889
▁12/6	-13.0891
▁gặm	-13.0892
▁phantom	-13.0892
▁4.4	-13.0893
global	-13.0895
▁avatar	-13.0896
▁zu	-13.0898
▁vhnt	-13.0903
▁playboy	-13.0904
▁sampdoria	-13.0904
/8/2010	-13.0905
▁43%	-13.0905
matic	-13.0912
thoi	-13.0916
▁ky	-13.0918
law	-13.092
▁14-9	-13.0923
▁chíp	-13.0925
thiêu	-13.0926
ụp	-13.0927
singh	-13.0934
▁19/6	-13.0935
▁18/5	-13.094
▁bee	-13.0941
elle	-13.0942
▁macau	-13.0945
beauty	-13.0946
đò	-13.0946
▁vẩy	-13.0947
▁mbb	-13.0948
-26	-13.0955
▁30/10	-13.0956
▁lảng	-13.0957
▁kris	-13.0957
▁vinpearl	-13.0958
▁ố	-13.0959
▁bianfishco	-13.0964
▁rossoneri	-13.0964
spears	-13.0964
nik	-13.0965
▁2011-2020	-13.0966
/4/2013	-13.0967
▁7/9	-13.0969
xra	-13.097
▁civic	-13.097
▁sxkd	-13.097
gp	-13.0972
gate	-13.0973
internet	-13.0974
▁fm	-13.0974
▁22/4	-13.0975
giêng	-13.0977
yoo	-13.0978
▁kitco	-13.0983
nốt	-13.0983
ngó	-13.0986
▁9/3	-13.0986
▁kroos	-13.0989
▁28/9	-13.0989
▁10,5	-13.0989
▁cardiff	-13.0989
▁khiêng	-13.099
hot	-13.0991
▁info	-13.0993
▁8/4	-13.0995
▁mumbai	-13.0995
▁fair	-13.0996
▁lẫy	-13.0999
vnaccs	-13.1001
bum	-13.1004
▁milito	-13.1004
▁xỏ	-13.1009
▁macron	-13.1011
▁8-9	-13.1018
▁3/6	-13.1018
▁mascara	-13.102
ella	-13.1022
▁mụ	-13.1026
▁dát	-13.1028
▁unclos	-13.1032
▁coutinho	-13.1034
▁5.0	-13.1034
tl	-13.1035
sik	-13.1035
▁hàu	-13.1037
▁huynh	-13.104
▁idc	-13.104
▁pogba	-13.1041
▁31/12	-13.1044
moore	-13.1049
,14	-13.1052
oni	-13.1054
▁xiêu	-13.1056
▁ber	-13.1058
var	-13.1061
thấu	-13.1063
▁2014-2015	-13.1063
▁nỉ	-13.1065
▁north	-13.1065
▁ohio	-13.107
quạt	-13.107
▁nelson	-13.107
▁ddr	-13.1072
xé	-13.1073
ment	-13.1076
▁37%	-13.1081
▁9/5	-13.1081
▁whitney	-13.1082
ib	-13.1086
▁ttgt	-13.1088
xén	-13.1088
oa	-13.1088
care	-13.1089
mồm	-13.109
▁đỉa	-13.1091
▁dượng	-13.1092
▁20/12	-13.1093
▁wolfsburg	-13.1095
▁hwang	-13.1097
▁152	-13.1099
smart	-13.1099
ini	-13.1102
▁bươn	-13.1102
ẩu	-13.1104
▁4/10	-13.1104
▁21/10	-13.1107
gđ	-13.1107
▁teaser	-13.1107
▁tata	-13.1108
ble	-13.111
jose	-13.112
▁12,5	-13.1123
ite	-13.1124
let	-13.1124
cặp	-13.1126
đềm	-13.1127
▁rachel	-13.113
▁hờn	-13.1131
walker	-13.1133
▁đờm	-13.1134
▁guam	-13.1134
ach	-13.1135
▁smith	-13.1135
jersey	-13.1145
huyên	-13.1146
▁đc	-13.1148
dal	-13.1149
▁turin	-13.115
▁29%	-13.115
▁rởm	-13.1151
▁dntn	-13.1151
▁ltd	-13.1151
▁zenit	-13.1158
▁hydro	-13.116
2,5	-13.1162
▁salad	-13.1163
▁vovinam	-13.1164
lampard	-13.1164
▁khê	-13.1166
▁5,7	-13.1166
ă	-13.1167
▁street	-13.1167
▁13/3	-13.1167
▁162	-13.1169
sarkozy	-13.117
hills	-13.1171
▁phăng	-13.1173
▁6/9	-13.1175
▁tie	-13.1175
kroos	-13.1177
▁cat	-13.1178
chiu	-13.118
tơn	-13.118
▁chùng	-13.1183
ngắt	-13.1187
▁lấm	-13.1191
▁hotboy	-13.1191
bở	-13.1193
▁larry	-13.1196
uri	-13.12
▁29/8	-13.12
▁desktop	-13.12
▁pato	-13.1201
▁42%	-13.1204
hênh	-13.1209
▁cahill	-13.121
▁6,5%	-13.1211
sờ	-13.1211
▁hđlđ	-13.1215
▁3.9	-13.1216
▁28/8	-13.1217
▁10/6	-13.1218
▁tpcn	-13.1219
ịch	-13.122
nhẽo	-13.1221
benitez	-13.1221
▁server	-13.1223
rông	-13.1225
▁droid	-13.1226
▁har	-13.1229
▁sẩy	-13.1229
hờn	-13.1231
▁goo	-13.1231
▁quẹt	-13.1233
/9/2013	-13.1234
▁word	-13.1235
▁149	-13.1236
▁5-4	-13.1237
phiệt	-13.1243
▁turbo	-13.1243
tắp	-13.1244
vic	-13.1246
nhựt	-13.1247
:45	-13.1249
▁bđn	-13.1256
ness	-13.1263
nhét	-13.1264
▁chuồn	-13.1266
▁cnc	-13.1267
,84	-13.1268
▁4/11	-13.1269
▁gút	-13.1275
▁15-10	-13.1275
cream	-13.1279
▁0-100	-13.128
santos	-13.1282
sô	-13.1282
▁brexit	-13.1284
▁6/1	-13.1285
▁síp	-13.1285
▁pat	-13.1286
▁capital	-13.1286
▁catherine	-13.1288
nhường	-13.1289
cau	-13.1291
truất	-13.1292
▁?"	-13.1296
vầy	-13.1298
ngo	-13.1299
-2005	-13.13
trịa	-13.1304
▁baht	-13.1304
saigon	-13.1311
▁tango	-13.1311
▁ngầu	-13.1316
▁25/1	-13.1321
allen	-13.1322
▁bahrain	-13.1323
▁liếc	-13.1323
▁qe	-13.1327
ming	-13.1331
tis	-13.1334
▁198	-13.1335
▁hssv	-13.1336
aki	-13.1346
giàng	-13.1351
▁lăm	-13.1353
▁saigontourist	-13.1355
▁mikhail	-13.1356
▁310	-13.1358
▁điếc	-13.1358
rầu	-13.1365
▁540	-13.1365
▁430	-13.1365
▁cược	-13.1367
▁tesla	-13.1368
xoa	-13.1368
▁ott	-13.1368
▁thảnh	-13.1369
chăm	-13.1375
▁itar	-13.1376
mor	-13.1377
,47	-13.1381
▁vầng	-13.1383
▁cưu	-13.1384
zon	-13.1386
far	-13.1387
▁zlatan	-13.1387
▁5-2	-13.1389
▁lượm	-13.1391
4,5	-13.1394
▁sục	-13.1398
vel	-13.1401
▁cbre	-13.1402
ứa	-13.1405
kỉnh	-13.1407
▁ace	-13.1412
▁digital	-13.1413
▁ricardo	-13.1413
▁jet	-13.1415
▁3,9	-13.1417
▁27/5	-13.142
telecom	-13.1421
gaddafi	-13.1421
▁2.7	-13.1421
.500	-13.1424
bks	-13.1424
▁parma	-13.1429
▁nhép	-13.143
▁chòm	-13.1432
7,5	-13.1433
▁fda	-13.1434
ese	-13.1435
▁japan	-13.1435
▁15,5	-13.1436
▁reading	-13.1439
chẳng	-13.144
,44	-13.1442
▁12/3	-13.1444
▁25/7	-13.1444
▁py	-13.1445
nhọ	-13.1445
đát	-13.1445
▁formosa	-13.1449
▁25/4	-13.1452
/7/2017	-13.1457
▁alibaba	-13.1458
/3/2013	-13.1461
ú	-13.1461
▁0,4%	-13.1461
rễ	-13.1462
▁anz	-13.1466
▁25/12	-13.1469
▁lugansk	-13.1471
▁marilyn	-13.1471
▁fire	-13.1472
/2001	-13.1473
ani	-13.1475
able	-13.1475
▁lịm	-13.1476
trác	-13.1476
▁true	-13.1477
▁slovenia	-13.1478
▁23/2	-13.1479
bull	-13.1479
▁34%	-13.1481
/2002	-13.1485
zer	-13.1485
▁ù	-13.1489
bre	-13.1489
▁wikileaks	-13.1491
pre	-13.1492
▁viêng	-13.1495
lor	-13.1495
▁denim	-13.1498
▁18/9	-13.1502
,16	-13.1503
▁aspire	-13.1504
/8/2009	-13.1505
/7	-13.1511
▁cotton	-13.1511
▁24/6	-13.1514
▁31/1	-13.1514
▁19/10	-13.1517
hắt	-13.1518
▁sochi	-13.1521
▁19/2	-13.1527
ian	-13.1531
▁bết	-13.1536
petro	-13.1537
▁oil	-13.1538
▁vaio	-13.154
▁9-10	-13.1541
▁đươc	-13.1543
,13	-13.1547
250	-13.1547
hiu	-13.1548
hwa	-13.1548
▁4/8	-13.1549
▁tấy	-13.1551
vát	-13.1552
1,3	-13.1552
iz	-13.1552
▁kiệm	-13.1552
▁8-3	-13.1555
▁shopping	-13.1556
▁oxford	-13.1556
▁rỡ	-13.1562
▁154	-13.1568
▁tk	-13.1569
▁5.500	-13.157
▁valdes	-13.1571
,74	-13.1577
▁húng	-13.1578
motors	-13.1579
hanoi	-13.1579
▁monte	-13.158
▁giương	-13.1581
▁1/2014	-13.1583
lđlđ	-13.1584
▁korea	-13.1585
▁157	-13.1585
môi	-13.1589
sửu	-13.159
▁wags	-13.1603
▁incheon	-13.1603
▁nhá	-13.1603
▁azerbaijan	-13.161
▁29/10	-13.1618
▁30-9	-13.1619
gián	-13.1625
séc	-13.1625
▁athletic	-13.1626
▁sol	-13.1626
▁store	-13.1628
▁lockheed	-13.1629
▁kyrgyzstan	-13.1631
đấy	-13.1631
/11/2010	-13.1632
▁bói	-13.1632
vịt	-13.1632
▁omar	-13.1633
▁settings	-13.1633
▁ebay	-13.1633
,87	-13.1634
▁163	-13.1634
/1/2014	-13.1635
▁gazprom	-13.1642
▁jelly	-13.1642
ward	-13.1644
thơi	-13.1645
ovic	-13.1648
xong	-13.1649
lau	-13.1653
hall	-13.1654
▁174	-13.1655
ation	-13.1657
▁ian	-13.1657
▁qp	-13.1657
giọt	-13.1657
/9	-13.1659
dra	-13.166
▁47%	-13.166
▁4000	-13.1662
▁estonia	-13.1662
ane	-13.1662
▁igor	-13.1663
▁26/5	-13.1663
tex	-13.1664
▁2021	-13.1668
▁202	-13.167
reuters	-13.1671
đính	-13.1671
▁5,4	-13.1672
▁6,3	-13.1675
▁2.300	-13.1676
▁america	-13.1678
▁14,5	-13.1679
1,4	-13.1679
▁29-3	-13.1679
▁178	-13.1681
▁down	-13.1683
rey	-13.1685
/8/2013	-13.1686
▁laura	-13.1688
▁thổn	-13.1693
ợt	-13.1694
more	-13.1694
▁hí	-13.1695
▁box	-13.1695
▁maicon	-13.1697
ibrahimovic	-13.1698
ras	-13.1701
▁23/3	-13.1701
ath	-13.1704
▁line	-13.1704
lăm	-13.1705
lle	-13.1708
▁khế	-13.1709
▁tằm	-13.1709
▁hãi	-13.1709
▁phũ	-13.171
xèo	-13.171
▁elite	-13.171
▁26/7	-13.1711
▁16/1	-13.1712
▁đạ	-13.1714
▁10/5	-13.1717
nhu	-13.1718
,37	-13.1719
wen	-13.1721
hyori	-13.1722
▁sports	-13.1731
,55	-13.1734
▁sấu	-13.1736
▁niệu	-13.1738
▁davis	-13.175
rus	-13.175
▁are	-13.1752
bl	-13.1757
met	-13.1763
▁1-10	-13.1763
▁doha	-13.1764
ati	-13.1765
▁ny	-13.1766
▁chưởng	-13.1766
▁rồ	-13.1768
▁klose	-13.1769
▁olympia	-13.1773
ẹp	-13.1774
player	-13.1777
▁hktt	-13.1777
limited	-13.1778
rủi	-13.178
chẩn	-13.1783
,18	-13.1788
▁fao	-13.1789
py	-13.179
▁dual	-13.179
▁bruce	-13.1792
▁tomas	-13.1793
ql	-13.1794
▁kb	-13.1797
▁nhớt	-13.1797
blue	-13.1797
row	-13.1799
▁2.400	-13.1803
tơi	-13.1807
củ	-13.1811
▁tag	-13.1814
▁192	-13.1815
▁6,2	-13.1816
gạt	-13.1816
▁pp	-13.1819
▁deportivo	-13.1822
sớm	-13.1825
muối	-13.1825
1,8	-13.1828
▁christina	-13.1829
super	-13.1829
▁webcam	-13.1832
benzema	-13.1832
▁mướn	-13.1838
▁24/12	-13.1839
nhẹt	-13.184
▁symbian	-13.1843
▁brendan	-13.1844
wat	-13.1844
▁shanghai	-13.1846
▁5-3	-13.1847
ồ	-13.1847
gel	-13.1851
rico	-13.1852
▁call	-13.1852
▁nọc	-13.1853
fund	-13.1854
▁390	-13.1856
▁bur	-13.1856
▁giuseppe	-13.1856
▁4-2-3	-13.1857
miller	-13.1857
▁váng	-13.1859
▁16/11	-13.1862
ral	-13.1863
▁shakira	-13.1863
-72	-13.1864
trống	-13.1865
râm	-13.1866
▁palm	-13.1866
▁tttt	-13.1868
▁istanbul	-13.187
▁starbucks	-13.187
▁chlb	-13.187
ves	-13.1871
6,5	-13.1871
▁boateng	-13.1873
mỗi	-13.1874
▁muller	-13.1876
▁13/12	-13.1878
watch	-13.188
sl	-13.1881
rc	-13.1881
▁oracle	-13.1883
▁sewol	-13.1883
▁640	-13.1886
▁2/2	-13.1887
▁3/2012	-13.1888
▁express	-13.1888
▁chôm	-13.1892
khhgđ	-13.1893
▁tvb	-13.1893
▁5/3	-13.1893
runway	-13.1894
▁1/2012	-13.1895
dis	-13.1897
▁guồng	-13.1897
▁chuck	-13.1899
▁loanh	-13.1899
rỗng	-13.1902
▁17/6	-13.1903
▁4-3-3	-13.1904
banking	-13.1908
▁cindy	-13.1911
▁portsmouth	-13.1911
▁gym	-13.1911
▁4/9	-13.1914
rủa	-13.1915
▁140.000	-13.1915
,67	-13.1915
,63	-13.1918
▁mikel	-13.1919
▁choàng	-13.1923
▁cằn	-13.1929
island	-13.1936
▁ktx	-13.1938
▁29/1	-13.1939
jet	-13.1947
▁11/12	-13.195
▁brooklyn	-13.1951
dấp	-13.1953
sion	-13.1953
▁kham	-13.1956
▁5,8	-13.1956
▁khất	-13.1958
▁161	-13.1958
▁retina	-13.1959
▁ngóc	-13.1964
▁jeon	-13.1965
▁scudetto	-13.1965
▁hỷ	-13.1965
-2000	-13.1965
cỗi	-13.1971
▁huyên	-13.1971
▁trồi	-13.1976
▁2-5	-13.1976
▁gaal	-13.1982
berry	-13.1984
▁tech	-13.1984
▁cừ	-13.1985
ugh	-13.1985
▁cbs	-13.1985
320	-13.1986
▁comex	-13.1986
▁rã	-13.1988
hui	-13.199
sấy	-13.199
▁add	-13.1991
▁háng	-13.1992
▁cesar	-13.1992
▁philippe	-13.1992
cr	-13.1995
▁vaccin	-13.1998
▁kđt	-13.2003
chưa	-13.2004
▁scarborough	-13.2006
náo	-13.2007
▁vỉ	-13.2007
▁xiêm	-13.2011
nhậu	-13.2014
▁bướu	-13.2014
/9/2009	-13.2014
app	-13.202
led	-13.2021
dòng	-13.2024
▁colorado	-13.2025
ding	-13.2026
▁arizona	-13.2027
sol	-13.2028
lữ	-13.2029
▁baggio	-13.2031
▁bae	-13.2031
chịt	-13.2034
dâng	-13.2036
▁2011-2016	-13.2038
bịch	-13.2041
▁houston	-13.2044
▁chum	-13.2047
▁ethanol	-13.2051
ear	-13.2053
▁icbm	-13.2054
▁osama	-13.2054
▁920	-13.2054
▁abbott	-13.2056
▁2/12	-13.2058
▁48%	-13.2059
trệt	-13.206
▁francis	-13.206
▁vincent	-13.206
ố	-13.2061
▁prudential	-13.2061
▁cbcc	-13.2063
▁27/11	-13.2063
campbell	-13.2065
▁rating	-13.2065
▁2.6	-13.2068
▁3.200	-13.2068
rov	-13.2072
▁hót	-13.2074
talk	-13.2075
▁2/10	-13.208
eco	-13.208
mic	-13.208
▁27/2	-13.2081
ano	-13.2084
syria	-13.2089
▁michigan	-13.2096
▁cạy	-13.2096
▁4.7	-13.2097
▁26/8	-13.2102
▁4-7	-13.2103
tà	-13.2105
▁raqqa	-13.2106
vội	-13.2107
▁olivier	-13.2114
rạp	-13.2114
▁tepco	-13.2117
▁21/9	-13.2117
hl	-13.2119
ens	-13.2123
▁239	-13.2124
▁qbv	-13.2125
▁philipp	-13.2125
▁44%	-13.2125
food	-13.2128
▁iq	-13.2132
▁6/2013	-13.2135
taka	-13.2135
ôi	-13.2136
▁18/6	-13.2142
ier	-13.2143
▁gmd	-13.2144
oán	-13.2147
▁11/8	-13.2147
chàm	-13.2148
▁kbs	-13.2148
▁164	-13.2149
chuốt	-13.2149
loà	-13.215
▁19/12	-13.215
▁3/11	-13.2151
▁voucher	-13.2151
hợt	-13.2155
lọ	-13.2158
bxl	-13.2159
▁núm	-13.2159
▁lh	-13.2162
▁adiz	-13.2164
▁shakhtar	-13.2165
▁boxing	-13.2166
hwan	-13.2166
mói	-13.2167
hục	-13.2172
ate	-13.2173
▁voọc	-13.2173
lầu	-13.2177
tẩu	-13.2179
▁kìa	-13.2191
/18	-13.2191
ene	-13.2197
lov	-13.2198
bert	-13.2201
▁vt	-13.2202
▁rúp	-13.2203
yer	-13.2205
▁far	-13.2206
▁merseyside	-13.2207
▁moody	-13.2207
▁vissan	-13.2207
2,3	-13.2208
potro	-13.2212
▁75.000	-13.2214
▁6.0	-13.2216
▁gdtx	-13.2222
▁xl	-13.2223
1,5	-13.2223
qi	-13.2227
▁testosterone	-13.2229
dam	-13.2229
wook	-13.2237
hawk	-13.2237
▁kyo	-13.224
▁yuri	-13.2242
▁netanyahu	-13.2244
,05	-13.2245
▁gara	-13.2247
▁4,1	-13.2252
neo	-13.2253
▁cùi	-13.2255
sis	-13.2255
▁hamilton	-13.2255
▁hiphop	-13.2256
▁ráp	-13.2257
nhnn	-13.2258
▁bun	-13.226
8,8	-13.226
▁athens	-13.2263
▁giẽ	-13.2264
▁pri	-13.2266
▁liam	-13.2267
▁khít	-13.227
▁bugatti	-13.2271
0,5	-13.2272
,89	-13.2273
đê	-13.2274
▁adrian	-13.2276
ent	-13.2278
▁suthep	-13.2278
▁46%	-13.2282
▁goetz	-13.2283
zan	-13.2284
▁master	-13.2287
ette	-13.2288
mả	-13.2288
▁20/6	-13.2289
ele	-13.2293
▁verizon	-13.2299
▁biếm	-13.2299
▁odessa	-13.2306
foundation	-13.2306
▁christine	-13.2306
▁ic	-13.2307
-2004	-13.2308
trỗi	-13.2311
▁ngạo	-13.2313
gunners	-13.2313
▁alaska	-13.2313
▁hợi	-13.2314
ish	-13.2316
▁lewandowski	-13.2316
,32	-13.2319
▁bập	-13.2321
phàng	-13.2321
▁sạ	-13.2327
▁bad	-13.2327
▁189	-13.233
choàng	-13.233
▁opmart	-13.2334
hughes	-13.2339
gio	-13.2341
▁lily	-13.2341
▁marawi	-13.2341
▁trạch	-13.2344
▁oecd	-13.2348
fone	-13.2351
▁28/12	-13.2351
▁https	-13.2353
▁26/2	-13.2353
▁ami	-13.2354
pur	-13.2354
▁sính	-13.2356
▁chồn	-13.2362
▁52%	-13.2364
kiếp	-13.2368
▁qwerty	-13.237
▁vlxd	-13.237
mw	-13.2373
▁3/12	-13.2375
phèo	-13.2376
▁bavaria	-13.2377
▁470	-13.2377
thiếp	-13.2377
chót	-13.2383
▁41%	-13.2384
đành	-13.2384
-28	-13.2385
▁ogc	-13.2386
▁chớm	-13.2389
▁pak	-13.239
cesar	-13.239
▁6,8	-13.2391
▁sdf	-13.2392
▁kompany	-13.2393
▁21/2	-13.2393
,22	-13.2396
▁201	-13.2398
▁xiaomi	-13.2399
▁3/2011	-13.2403
,49	-13.2403
management	-13.2405
▁hack	-13.2406
▁chây	-13.2406
▁warren	-13.241
cer	-13.2411
/2011/	-13.2415
▁schweinsteiger	-13.2416
henry	-13.2418
▁151	-13.2419
▁23/12	-13.242
lung	-13.242
▁21.000	-13.242
,07	-13.2423
▁2,5%	-13.2424
▁blazer	-13.2427
▁23/11	-13.2428
stan	-13.2431
,38	-13.2433
dance	-13.2433
▁feet	-13.2434
phế	-13.2435
baby	-13.2435
1,2	-13.2437
▁kar	-13.2437
▁mallorca	-13.2438
à	-13.2438
cio	-13.244
thẹn	-13.2448
▁4/2012	-13.2448
▁ngẩn	-13.245
nhoi	-13.2452
netanyahu	-13.2454
wales	-13.2454
▁lình	-13.2459
,12	-13.2459
▁18-7	-13.2461
▁detroit	-13.2463
▁myung	-13.2466
▁pay	-13.2466
nhanh	-13.247
▁11/4	-13.2471
▁bobby	-13.2472
1,7	-13.2476
▁nhựt	-13.2477
▁166	-13.2477
,78	-13.2482
▁audio	-13.2483
▁julian	-13.2483
▁range	-13.2483
4,8	-13.2484
,39	-13.2488
hoè	-13.2488
▁khơ	-13.2489
▁atom	-13.249
,27	-13.2491
ius	-13.2494
-130	-13.2494
inter	-13.2495
▁3.7	-13.2495
imex	-13.2495
thùng	-13.2495
xx	-13.2496
▁hạc	-13.2497
nghìn	-13.2498
▁cazorla	-13.2501
ssi	-13.2501
ộng	-13.2502
calderon	-13.2506
8,5	-13.2508
▁busan	-13.2508
▁insulin	-13.2513
beng	-13.2513
▁inox	-13.2514
▁rodgers	-13.2515
nk	-13.2516
kham	-13.2517
7,8	-13.2519
▁kenny	-13.252
▁159	-13.2521
cụi	-13.2524
zuckerberg	-13.2526
chén	-13.2526
▁unicef	-13.2528
▁khùng	-13.2529
▁sebastian	-13.2533
▁18/10	-13.2533
khán	-13.2534
▁xối	-13.2537
ổ	-13.2538
sắp	-13.2539
/6/2013	-13.2541
▁busquets	-13.2542
▁him	-13.2542
▁vcis	-13.2543
▁nhẩm	-13.2544
▁aig	-13.2547
▁toản	-13.2547
los	-13.2548
-100	-13.2548
rodgers	-13.2548
ada	-13.2549
▁560	-13.2549
xoài	-13.2549
ping	-13.2549
5,6	-13.2549
▁11/2	-13.255
▁osce	-13.255
/5/2017	-13.255
▁topcare	-13.2556
sầu	-13.2556
▁bẽ	-13.2558
ngát	-13.2561
▁183	-13.2561
,06	-13.2563
▁av	-13.2564
▁paparazzi	-13.2564
▁570	-13.2564
▁baltic	-13.2564
▁14/8	-13.2569
nhặn	-13.2569
kra	-13.2573
,33	-13.2575
mario	-13.2575
▁hệt	-13.2577
▁montenegro	-13.2578
▁12/11	-13.2579
,23	-13.2579
▁gùi	-13.2586
è	-13.2587
▁7.500	-13.2587
▁6-10	-13.2588
▁cagliari	-13.2589
monroe	-13.2593
▁vncb	-13.2594
▁187	-13.2594
pol	-13.2595
▁mẩn	-13.2596
▁seabank	-13.2596
▁2/2012	-13.2596
▁đùn	-13.2599
tành	-13.2602
▁messenger	-13.2605
.2008	-13.2606
▁ppc	-13.2611
▁corp	-13.2611
▁mag	-13.2612
hua	-13.2613
▁24/4	-13.2615
▁vidal	-13.2618
▁1-8	-13.262
▁usa	-13.2621
▁suzy	-13.2622
▁14/12	-13.2623
▁vỹ	-13.2623
▁630	-13.2624
gam	-13.2627
dv	-13.2628
sil	-13.2629
▁vientiane	-13.2629
▁pac	-13.263
▁8/12	-13.2632
▁chun	-13.2632
,02	-13.2633
bịu	-13.2634
1000	-13.2636
▁oái	-13.2636
▁đk	-13.2637
,93	-13.2638
▁0,6%	-13.2639
/0	-13.2644
▁1947	-13.2646
▁tuất	-13.2647
éo	-13.2648
mba	-13.2648
▁31-8	-13.2648
less	-13.2648
seng	-13.2649
hara	-13.2649
australia	-13.265
chelsea	-13.265
qt	-13.2651
,11	-13.2653
đận	-13.2653
▁14/1	-13.2654
▁1/2011	-13.2657
nov	-13.2658
▁440	-13.266
nút	-13.266
award	-13.2665
cos	-13.2667
trao	-13.2668
▁xiên	-13.267
chày	-13.2673
▁copenhagen	-13.2673
▁110.000	-13.2678
▁cvđ	-13.2678
▁5/11	-13.268
ăm	-13.268
hợi	-13.2683
▁barry	-13.2685
mỗ	-13.2687
▁chipset	-13.2688
/2010	-13.269
bồng	-13.2692
chavez	-13.2694
▁java	-13.2695
▁bvs	-13.2699
▁sean	-13.2699
▁ttk	-13.2709
▁nkt	-13.2713
▁gả	-13.2713
▁16,5	-13.2716
đh	-13.2716
nâu	-13.2718
▁hk	-13.2724
▁24.000	-13.2724
,83	-13.2724
av	-13.2724
▁florentino	-13.2727
▁trìu	-13.2727
ys	-13.2731
burg	-13.2732
diên	-13.2732
yoon	-13.2733
illa	-13.2734
▁toure	-13.2737
▁188	-13.2739
bv	-13.274
kn	-13.2742
▁ep	-13.2743
/1945	-13.2744
etti	-13.2752
▁900.000	-13.2752
▁xệ	-13.2753
ante	-13.2757
are	-13.2758
rich	-13.2761
ale	-13.2763
▁1500	-13.2764
▁1952	-13.2766
prix	-13.2767
▁vít	-13.2767
điểu	-13.2769
lock	-13.2769
/1/2010	-13.2772
150	-13.2772
cợt	-13.2774
▁19.000	-13.2775
▁jeremy	-13.2777
soái	-13.2779
▁tommy	-13.2779
nghè	-13.2781
▁rocker	-13.2782
▁evans	-13.2783
rina	-13.2784
bô	-13.2785
ous	-13.2792
▁ppi	-13.2797
▁janeiro	-13.2799
▁celta	-13.28
▁2.600	-13.28
thomas	-13.2801
▁loé	-13.2802
gỉ	-13.2803
▁sy	-13.2804
nhuế	-13.2805
▁181	-13.2805
▁176	-13.2805
▁nghiễm	-13.2807
▁rú	-13.2808
,20	-13.2809
▁gomez	-13.2811
▁electronics	-13.2811
▁215	-13.2812
▁mos	-13.2817
ret	-13.2817
,24	-13.282
biếng	-13.2821
sco	-13.2825
▁arena	-13.2827
▁3/10	-13.2827
carlo	-13.2827
ship	-13.2832
▁nhũng	-13.2832
▁osaka	-13.2835
▁nài	-13.2836
snapdragon	-13.2836
/1	-13.2837
cồ	-13.284
▁pastel	-13.2844
▁goldman	-13.2845
lac	-13.2846
nhó	-13.2848
▁14/2	-13.285
▁scan	-13.285
bell	-13.2851
▁8/1	-13.2852
▁australian	-13.2853
travel	-13.2856
▁275	-13.2857
▁172	-13.2857
oli	-13.2858
▁strauss	-13.2863
ghz	-13.2865
gui	-13.2868
▁8.3	-13.287
▁ye	-13.2873
▁catalunya	-13.2873
60.000	-13.2874
nhằng	-13.2874
parker	-13.2875
▁9/2011	-13.2877
gổ	-13.288
▁xóc	-13.288
mtxt	-13.288
she	-13.2881
▁emily	-13.2881
▁1800	-13.2882
yev	-13.2885
▁jen	-13.2886
▁quầng	-13.2888
gram	-13.2889
▁4-4-2	-13.2891
rit	-13.2893
▁xới	-13.2895
▁wc	-13.2898
▁râm	-13.29
▁smalling	-13.2901
coli	-13.2902
▁pennsylvania	-13.2903
thét	-13.2906
,09	-13.2911
mbo	-13.2911
.750	-13.2912
sudan	-13.2913
▁over	-13.2914
▁ev	-13.2916
▁xiv	-13.2918
▁if	-13.292
cruz	-13.2921
/2013/	-13.2922
▁anton	-13.2922
▁vpcp	-13.2924
▁fortuner	-13.2926
sit	-13.2929
ges	-13.2929
arsenal	-13.2934
est	-13.2935
▁cnet	-13.2937
carolina	-13.2941
▁duỗi	-13.2941
▁thẫn	-13.2941
▁quàng	-13.2943
đkdt	-13.2948
▁this	-13.2948
▁7/12	-13.2954
▁đơ	-13.2961
▁sàm	-13.2962
bot	-13.2964
ttxvn	-13.2964
▁nemanja	-13.2964
mảnh	-13.2964
▁nhợt	-13.2966
/9/2017	-13.2969
▁dha	-13.297
▁28/2	-13.297
drogba	-13.2971
choạng	-13.2972
▁khêu	-13.2973
▁scarlett	-13.2973
▁65.000	-13.2973
juan	-13.298
guardian	-13.298
ù	-13.2981
▁nong	-13.2983
▁tele	-13.2984
quãng	-13.2987
ệ	-13.2988
▁jobs	-13.3001
lat	-13.3003
▁768	-13.3008
▁nhĩ	-13.3008
dtts	-13.3009
▁10-11	-13.3012
▁thúng	-13.3015
▁bass	-13.3018
nít	-13.3021
▁đới	-13.3021
sur	-13.3021
▁alba	-13.3031
ươm	-13.3031
▁ilo	-13.3031
▁5-9	-13.3032
ứ	-13.3036
conte	-13.3038
▁adele	-13.3042
5,8	-13.3042
▁andres	-13.3043
free	-13.3047
tđ	-13.3047
▁santiago	-13.3049
bẩm	-13.3051
studio	-13.3052
▁23.000	-13.3052
sảng	-13.3056
▁yong	-13.3057
▁450.000	-13.3061
▁weibo	-13.3063
/14	-13.3065
ghẹo	-13.3066
ự	-13.3067
▁vios	-13.307
▁rặng	-13.3071
nực	-13.3072
▁walter	-13.3073
mes	-13.3074
,57	-13.3076
shot	-13.3077
▁khước	-13.3079
html	-13.3079
▁21/1	-13.3081
▁watch	-13.3084
▁2/7	-13.3084
▁mhz	-13.3085
entertainment	-13.3086
▁2/8	-13.3088
paris	-13.3092
▁mào	-13.3094
,94	-13.3096
ou	-13.3097
▁little	-13.3099
ica	-13.3103
▁ahmed	-13.3106
hóp	-13.3107
▁cocktail	-13.3108
chun	-13.311
▁bayer	-13.3111
▁sùi	-13.3111
▁allegri	-13.3112
dưa	-13.3112
▁abdul	-13.3113
nheo	-13.3115
ama	-13.3116
▁53%	-13.3118
▁wp	-13.312
▁24/9	-13.3124
sson	-13.3124
mĩ	-13.3125
mửa	-13.3125
▁nhẽ	-13.3126
nhâm	-13.3127
▁exciter	-13.3128
▁name	-13.313
▁298	-13.3131
pal	-13.3132
99.000	-13.3132
▁sandal	-13.3133
▁mit	-13.3133
jar	-13.3133
nao	-13.3134
▁philips	-13.3134
phùn	-13.3134
mir	-13.3136
,69	-13.3136
▁cchc	-13.3139
capello	-13.314
nb	-13.314
▁203	-13.314
yun	-13.3142
nova	-13.3143
▁160.000	-13.3143
▁24/3	-13.3144
▁173	-13.3146
▁xuyến	-13.3147
▁6.500	-13.3149
▁hì	-13.3149
đéc	-13.315
▁nơm	-13.3152
▁spider	-13.3154
▁not	-13.3156
▁sandra	-13.3157
▁25/11	-13.3157
▁xảo	-13.3158
▁235	-13.3161
▁sunny	-13.3163
tur	-13.3163
tằm	-13.3165
▁socola	-13.3165
▁anelka	-13.3165
/2014/	-13.3168
,73	-13.3169
chiên	-13.3171
kai	-13.3172
tek	-13.3172
▁ara	-13.3173
▁17/3	-13.3174
▁rầu	-13.3177
▁luxembourg	-13.3178
shayk	-13.318
▁phỉ	-13.3181
▁vén	-13.3181
▁aa	-13.3182
▁205	-13.3183
ổi	-13.3185
evans	-13.3187
gật	-13.319
▁11,5	-13.319
▁6,4	-13.3191
tét	-13.3192
aa	-13.3194
ue	-13.3197
▁ngút	-13.32
▁linux	-13.3201
ola	-13.3201
▁phập	-13.3201
▁just	-13.3202
▁xúm	-13.3202
chững	-13.3204
▁chực	-13.3206
9,5	-13.3209
nghía	-13.3209
▁186	-13.3213
▁pablo	-13.3214
▁vê	-13.3215
▁oliver	-13.3217
festival	-13.3217
▁manhattan	-13.3219
▁wta	-13.3219
▁courtois	-13.3221
▁vne	-13.3221
▁182	-13.3225
,25%	-13.3226
▁56%	-13.3226
▁gout	-13.3226
▁british	-13.3227
▁vienna	-13.3229
▁27/1	-13.3231
▁foxconn	-13.3232
▁17/9	-13.3233
▁mpx	-13.3237
ore	-13.3237
▁yanukovych	-13.3239
pat	-13.3241
gil	-13.3241
6,2	-13.3243
bt	-13.3243
ngạo	-13.3247
lawrence	-13.3248
tus	-13.3249
bồi	-13.3252
▁1.900	-13.3253
đản	-13.3253
▁heidi	-13.3255
▁tâng	-13.3256
ay	-13.3257
cent	-13.3258
▁1940	-13.3259
▁now	-13.3261
char	-13.3261
lì	-13.3261
▁sunday	-13.3262
ura	-13.3267
lic	-13.327
điếm	-13.3272
▁27/8	-13.3272
▁shtt	-13.3272
▁tịt	-13.3279
saint	-13.3282
owen	-13.3282
ây	-13.3283
▁trác	-13.3283
vigo	-13.3284
ero	-13.3285
▁ict	-13.3285
80.000	-13.3289
▁nhão	-13.3289
▁í	-13.329
ther	-13.3292
▁tpcp	-13.3299
▁máng	-13.3301
▁find	-13.3301
trứ	-13.3301
▁that	-13.3302
xoè	-13.3303
▁phung	-13.3304
▁28/1	-13.3305
,28	-13.3305
▁dơ	-13.3306
rou	-13.3306
▁mitt	-13.3308
,92	-13.3309
▁adobe	-13.331
▁games	-13.3311
▁luka	-13.3315
▁mama	-13.3315
▁peugeot	-13.3317
▁vatican	-13.3317
cooper	-13.3318
veo	-13.3319
▁6,6	-13.3323
bun	-13.3325
▁shiite	-13.3325
▁3/8	-13.3326
david	-13.3327
,43	-13.3329
▁zalo	-13.3334
ple	-13.3334
pf	-13.3336
▁bsc	-13.3336
nong	-13.3337
▁cặm	-13.3341
▁npk	-13.3342
▁13-9	-13.3343
▁lock	-13.3344
▁val	-13.3344
.200	-13.3345
▁bryan	-13.3349
▁3.6	-13.3349
viếng	-13.3351
▁tấu	-13.3352
hoo	-13.3353
ida	-13.3354
neville	-13.3356
giũ	-13.3356
ló	-13.3359
▁haiyan	-13.3362
xù	-13.3365
vh	-13.3365
▁khuếch	-13.3365
▁oezil	-13.3366
▁5.1	-13.3371
ltd	-13.3372
▁6/2012	-13.3372
▁7,8	-13.3376
▁gỉ	-13.3376
▁sình	-13.3376
,03	-13.3378
sachs	-13.3379
▁chievo	-13.3383
▁3.1	-13.3384
▁seri	-13.3386
▁ruốc	-13.3389
huyệt	-13.3391
bur	-13.3393
,70	-13.3395
▁31-3	-13.3397
▁7,5%	-13.3397
muller	-13.3398
▁0,7%	-13.3399
hứa	-13.3401
nghẹt	-13.3406
2016	-13.3406
▁giadinh	-13.3406
eda	-13.3406
,60	-13.3407
▁đtđ	-13.3409
▁1949	-13.341
▁4/3	-13.3413
▁epc	-13.3415
▁olympiakos	-13.342
▁dỏm	-13.342
▁vksndtc	-13.342
,30	-13.3423
▁61%	-13.3424
▁tèo	-13.3424
panda	-13.3427
▁vữa	-13.3428
/2010/	-13.3431
▁5-8	-13.3438
▁26.000	-13.3438
▁loè	-13.3439
mét	-13.344
▁2.800	-13.3442
▁3/2013	-13.3445
ọt	-13.3445
▁19-9	-13.3446
▁gsm	-13.3446
ade	-13.3446
▁dar	-13.345
▁5,1	-13.3451
▁ptsc	-13.3452
▁cạm	-13.3452
▁lahm	-13.3454
ật	-13.3455
▁natri	-13.3458
▁carat	-13.3459
▁sch	-13.346
sociedad	-13.3461
▁karl	-13.3462
▁page	-13.3468
▁vãn	-13.3469
▁geun	-13.347
bẫy	-13.347
fair	-13.3472
xt	-13.3472
master	-13.3473
page	-13.3479
▁take	-13.348
xoan	-13.348
pattinson	-13.3483
lly	-13.3485
▁195	-13.3486
▁sme	-13.3488
đác	-13.3488
▁5/1	-13.3488
▁linda	-13.349
▁alice	-13.3492
▁đtm	-13.3492
▁mer	-13.3493
tùm	-13.3493
kane	-13.3494
▁gồ	-13.3494
hr	-13.3495
2,8	-13.3497
▁td	-13.3497
▁ipv	-13.3501
2,7	-13.3501
▁voice	-13.3509
▁ion	-13.3512
▁koscielny	-13.3513
▁10-20	-13.3515
aniston	-13.3515
kun	-13.3516
▁clo	-13.3516
▁sửu	-13.352
▁17,5	-13.3521
▁from	-13.3523
3,8	-13.3523
▁granada	-13.3523
▁darren	-13.3523
7,7	-13.3525
▁wikipedia	-13.3527
/2/2013	-13.3529
/8/2014	-13.3529
shop	-13.3531
▁dna	-13.3536
bua	-13.3536
▁trứ	-13.3538
▁jurgen	-13.3539
anna	-13.3539
▁khèn	-13.354
lõng	-13.3541
/8	-13.3542
▁12/2012	-13.3543
▁nùng	-13.3543
▁format	-13.3546
sie	-13.3546
▁mánh	-13.3548
had	-13.3548
▁cctv	-13.3548
south	-13.3549
rít	-13.3549
▁fran	-13.3551
moss	-13.3551
▁26/12	-13.3553
▁selecao	-13.3555
▁17-7	-13.3555
▁miguel	-13.3556
▁rít	-13.3559
6,8	-13.3559
▁410	-13.3559
cữu	-13.356
▁trĩu	-13.356
▁bd	-13.3562
chin	-13.3564
▁10-9	-13.3565
▁tiệt	-13.3565
business	-13.3565
▁ldp	-13.3566
tý	-13.3566
khái	-13.3567
▁3/3	-13.3567
nẻ	-13.3568
ava	-13.3576
▁hello	-13.3576
,96	-13.3576
ầy	-13.3577
▁dustin	-13.3579
▁pgđ	-13.3581
▁sta	-13.3591
▁19-7	-13.3594
▁2.100	-13.3595
ngừng	-13.3599
,62	-13.36
1,9	-13.3601
▁thor	-13.3603
▁54%	-13.3603
▁7-7	-13.3603
sub	-13.3605
ngâm	-13.3606
▁guillaume	-13.3607
▁7,3	-13.3609
ew	-13.3609
▁gmt	-13.361
▁hóng	-13.3613
vẫy	-13.3614
▁mọt	-13.3614
▁62%	-13.3614
▁ximăng	-13.3616
▁hù	-13.3618
lc	-13.3618
lổ	-13.3619
▁scolari	-13.3619
▁ucraina	-13.3619
ence	-13.362
ùn	-13.3624
nhá	-13.3625
▁đuống	-13.3626
vông	-13.3626
itz	-13.3627
▁vaart	-13.3628
▁7/1	-13.363
▁khiên	-13.3633
đoái	-13.3634
▁rodrigo	-13.3634
chanh	-13.3639
▁bigc	-13.3639
hyuk	-13.3641
,10	-13.3643
nể	-13.3644
xcơ	-13.3646
▁talk	-13.3648
hạo	-13.3649
0,2	-13.3651
▁sami	-13.3651
▁caroline	-13.3652
▁4/2011	-13.3663
tal	-13.3665
▁jaguar	-13.3668
▁kit	-13.3669
explorer	-13.3671
▁169	-13.3672
▁9/2013	-13.3675
▁johan	-13.3679
võng	-13.368
ireland	-13.3681
▁pct	-13.3683
▁aud	-13.3691
▁crossover	-13.3692
▁wesley	-13.3692
▁phủi	-13.3694
university	-13.3695
enrique	-13.3696
▁bmc	-13.3696
▁ronald	-13.3696
carter	-13.3696
giê	-13.3696
▁xt	-13.3702
fit	-13.3702
▁jordi	-13.3704
5,7	-13.3704
dầm	-13.3705
▁nép	-13.3709
uẩn	-13.3709
▁vermaelen	-13.3709
▁uv	-13.3709
gáp	-13.3709
modric	-13.3712
▁57%	-13.3713
electric	-13.3717
lum	-13.3721
fl	-13.3722
▁18-4	-13.3723
▁simeone	-13.3723
6,7	-13.3724
▁sagna	-13.3727
pay	-13.3727
▁dẫm	-13.3727
▁ivy	-13.3728
ws	-13.3728
▁39%	-13.3732
▁hormon	-13.3732
▁19-5	-13.3733
▁slogan	-13.3733
hagel	-13.3737
▁17-10	-13.3738
▁yg	-13.374
▁ins	-13.3742
,42	-13.3743
▁quyện	-13.3745
▁apollo	-13.3746
vuitton	-13.3748
▁share	-13.3749
▁renault	-13.3749
▁23/1	-13.3751
aya	-13.3753
5,5	-13.3754
ska	-13.3754
bong	-13.3758
▁icon	-13.376
trám	-13.3762
xoà	-13.3762
bush	-13.3762
-40	-13.3766
/2/2014	-13.3766
▁catania	-13.377
▁martino	-13.377
▁5.7	-13.3774
,29	-13.3775
▁bặt	-13.3776
▁boa	-13.3777
xới	-13.3779
▁gấm	-13.3783
▁thiếc	-13.3783
-500	-13.3784
▁display	-13.3785
phác	-13.3786
chùi	-13.3786
▁matic	-13.3786
khoải	-13.3788
oh	-13.3788
▁2.700	-13.379
▁cape	-13.3791
▁dior	-13.3793
bas	-13.3794
▁vietjetair	-13.3795
▁9/2012	-13.3796
,41	-13.3796
▁dia	-13.3798
dà	-13.38
ance	-13.3801
▁mão	-13.3801
▁chiểu	-13.3801
▁samir	-13.3801
▁gãi	-13.3801
▁ttg	-13.3802
sharapova	-13.3802
cel	-13.3805
manuel	-13.3805
sn	-13.3808
rói	-13.3811
▁homs	-13.3812
▁ngoảnh	-13.3812
rel	-13.3816
▁30/1	-13.3817
▁5/2	-13.3818
▁5-5	-13.382
▁802.11	-13.3823
▁sterling	-13.3823
▁lặt	-13.3824
zz	-13.3826
quỳ	-13.3827
muội	-13.3827
▁kra	-13.3827
rim	-13.383
br	-13.3831
▁pos	-13.3831
▁ftse	-13.3832
vải	-13.3834
romney	-13.3835
thong	-13.3838
▁3.3	-13.3839
▁poly	-13.3839
wu	-13.3841
bet	-13.3847
▁coentrao	-13.3849
.990.000	-13.3849
▁bologna	-13.3851
kiêm	-13.3852
▁97%	-13.3853
,81	-13.3856
▁thau	-13.3856
▁222	-13.3857
cker	-13.3857
▁cac	-13.3858
▁crop	-13.3859
▁buffet	-13.3859
kas	-13.386
,64	-13.3861
▁coleen	-13.3865
▁1280	-13.3865
eye	-13.3866
▁band	-13.3866
▁12/4	-13.3867
nor	-13.3869
▁7.0	-13.387
ise	-13.387
nal	-13.3873
▁patriot	-13.3873
▁xắn	-13.3873
chuối	-13.3877
cằn	-13.3878
▁qk	-13.3879
▁armenia	-13.3881
▁ielts	-13.3881
2,2	-13.3882
hũ	-13.3883
wer	-13.3886
skin	-13.3887
▁chấu	-13.3889
ề	-13.389
▁sofa	-13.3892
8,9	-13.3897
▁xít	-13.3897
▁xahoi	-13.3898
▁sctv	-13.3899
space	-13.3901
▁hitler	-13.3907
▁update	-13.3915
,99	-13.3918
hạc	-13.3919
tov	-13.3921
-70	-13.3922
▁ntbd	-13.3923
3,4	-13.3927
▁7-1	-13.3928
▁4/1	-13.3928
▁bm	-13.393
▁30-3	-13.3932
▁30-7	-13.3933
tấm	-13.3939
gh	-13.3943
▁bing	-13.3947
▁13/8	-13.3947
/15	-13.3948
ile	-13.3948
▁193	-13.3948
nấp	-13.395
quới	-13.3953
▁gành	-13.3954
▁khuỷu	-13.3956
▁gôn	-13.3956
▁health	-13.3956
▁willian	-13.3956
▁gặ	-13.3956
▁15-5	-13.3964
▁claudio	-13.3964
▁xuýt	-13.3964
ful	-13.3965
▁rập	-13.3966
▁cloud	-13.3968
poroshenko	-13.3968
loew	-13.3969
4,7	-13.3971
▁arbeloa	-13.3975
▁11/1	-13.3976
lei	-13.3976
▁7/2012	-13.3978
luis	-13.3979
bike	-13.3981
7,9	-13.3982
▁wei	-13.3983
blanc	-13.3986
▁179	-13.3989
▁phảng	-13.3991
▁11-11	-13.3993
chamberlain	-13.3993
▁15-4	-13.3995
nơ	-13.3995
▁lincoln	-13.3995
▁stockholm	-13.3998
▁aipa	-13.4
▁niu	-13.4
▁muammar	-13.4006
mag	-13.401
▁navas	-13.401
▁cell	-13.4014
▁amanda	-13.4014
▁icloud	-13.4015
nick	-13.4017
oo	-13.4018
▁felipe	-13.4018
ườm	-13.4022
▁fletcher	-13.4023
set	-13.4029
▁khứ	-13.4029
▁1/2010	-13.403
▁chiềng	-13.404
rợp	-13.404
▁20-11	-13.4041
▁208	-13.4043
▁elo	-13.4044
control	-13.4044
▁vv	-13.4044
sse	-13.4044
▁sukhoi	-13.4048
▁212	-13.4054
sắng	-13.4057
▁999	-13.4058
khen	-13.406
▁8/2	-13.4061
▁5,9	-13.4062
khoé	-13.4063
▁lhtn	-13.4065
▁plvn	-13.4066
▁11-9	-13.4067
print	-13.4071
▁quẩn	-13.4071
▁bernard	-13.4071
▁loá	-13.4074
▁20-7	-13.4075
▁14-5	-13.4076
▁fuji	-13.4077
▁5/2013	-13.4077
tti	-13.4078
▁20/2	-13.4081
0,4	-13.4082
,34	-13.4082
▁sậm	-13.4083
▁10/2	-13.4083
▁5,5%	-13.4084
gur	-13.4085
từng	-13.4088
carlos	-13.4089
▁11/2012	-13.4089
wilshere	-13.4095
veyron	-13.4099
tởm	-13.4099
▁7/4	-13.4102
,58	-13.4104
▁đổng	-13.4104
▁950	-13.4107
▁masters	-13.411
▁how	-13.4111
/10/2014	-13.4119
▁poroshenko	-13.412
dậu	-13.412
houston	-13.412
ori	-13.4122
▁đày	-13.4125
xtin	-13.4126
▁huê	-13.4128
sey	-13.4129
bôi	-13.4131
▁530	-13.4132
▁cer	-13.4133
▁0,8%	-13.4135
▁3-7	-13.4135
▁1.10	-13.4137
vén	-13.4139
bloom	-13.4141
▁sấp	-13.4142
1,6	-13.4144
rứt	-13.4145
welbeck	-13.4146
vắt	-13.4146
mandela	-13.4146
wong	-13.4147
▁197	-13.415
bóc	-13.415
ery	-13.4153
▁nhk	-13.4155
,26	-13.4155
▁nerazzurri	-13.4158
▁ruby	-13.4158
350	-13.416
▁beauty	-13.4161
berlusconi	-13.4163
vênh	-13.4163
corporation	-13.4167
▁ỳ	-13.4174
▁wef	-13.4174
▁55.000	-13.4182
▁cuồn	-13.4182
bis	-13.4183
rum	-13.4184
▁14-7	-13.4185
▁vietravel	-13.4192
▁mảy	-13.4193
pr	-13.4193
▁245	-13.4195
system	-13.4195
hussein	-13.4197
▁184	-13.4198
▁ghim	-13.4204
pon	-13.4205
▁ross	-13.4207
▁3,5%	-13.4208
cưa	-13.4209
tle	-13.421
9,7	-13.4211
▁9-11	-13.4214
/2/2010	-13.4216
▁cara	-13.4216
▁alumin	-13.4217
kao	-13.4221
▁vga	-13.4228
abramovich	-13.4232
▁16/12	-13.4232
sỉ	-13.4232
▁dĩa	-13.4233
▁fiesta	-13.4235
▁xát	-13.424
pogba	-13.424
phích	-13.4242
mega	-13.4242
aires	-13.4242
6,3	-13.4244
▁15-7	-13.4248
▁8,9	-13.4254
8,4	-13.4254
elli	-13.4265
novosti	-13.4266
▁28.000	-13.4268
xáo	-13.4268
▁mếu	-13.4269
pri	-13.4272
cua	-13.4272
9,3	-13.4274
▁hoắc	-13.4274
▁mariah	-13.4276
ĩu	-13.4276
▁khăm	-13.4277
scott	-13.4278
lên	-13.4278
▁shutterstock	-13.4278
shire	-13.4279
▁4,5%	-13.4281
▁vẻn	-13.4286
▁sandy	-13.4289
eg	-13.4291
lukaku	-13.4292
qs	-13.4294
▁zac	-13.4294
▁af	-13.4295
▁kiwi	-13.4296
▁heineken	-13.4297
▁nice	-13.4298
expo	-13.4301
cuộn	-13.4302
▁23/4	-13.4304
over	-13.4304
▁ghềnh	-13.4306
boys	-13.4312
▁lilama	-13.4313
▁mari	-13.4316
board	-13.4317
security	-13.4318
robben	-13.4318
vừa	-13.4318
/7/2009	-13.4318
▁67%	-13.4318
▁ngùn	-13.4319
▁1-9	-13.432
ếm	-13.432
▁ghì	-13.4321
▁11/2013	-13.4327
3,3	-13.4327
▁erdogan	-13.4329
▁kobe	-13.4331
▁ngưu	-13.4332
,82	-13.4332
▁slim	-13.4333
▁zo	-13.4333
▁fit	-13.4333
soft	-13.4335
▁judo	-13.4336
▁ngò	-13.4337
▁10-1	-13.4338
▁pvep	-13.434
▁hám	-13.4341
▁dãn	-13.4343
▁mor	-13.4343
▁18/12	-13.4343
isa	-13.4344
▁aegis	-13.4347
▁19-8	-13.4348
▁jeju	-13.4349
airways	-13.4353
nọ	-13.4355
▁4/2013	-13.4356
ttđt	-13.4358
▁lisa	-13.4359
yl	-13.4361
wick	-13.4362
thố	-13.4364
▁1200	-13.4365
sỏ	-13.4365
▁3/1	-13.4367
bond	-13.4367
sùi	-13.4371
bánh	-13.4373
▁1/500	-13.4373
thỉ	-13.4373
khô	-13.4374
evra	-13.4377
loi	-13.4377
▁bid	-13.4378
▁xoã	-13.4382
use	-13.4382
▁dpj	-13.4382
pper	-13.4384
nino	-13.4386
rèn	-13.4388
▁ser	-13.439
▁dennis	-13.4391
▁gap	-13.4391
▁harvey	-13.4392
▁szczesny	-13.4393
▁19/3	-13.4394
valencia	-13.4397
kawa	-13.4397
▁caribe	-13.4401
▁8/2011	-13.4404
▁412	-13.4404
redknapp	-13.4405
▁1,2%	-13.4406
▁6-12	-13.4408
▁đvtn	-13.4408
ét	-13.4408
▁rên	-13.4409
▁177	-13.4409
mura	-13.441
▁hsc	-13.4411
▁sr	-13.4412
trừng	-13.4413
▁bre	-13.4414
vilanova	-13.4414
7,3	-13.4415
vietnamnet	-13.4416
▁610	-13.4418
▁sushi	-13.4419
▁hoen	-13.4419
▁think	-13.4421
queen	-13.4423
lyn	-13.4423
▁carling	-13.4428
muồi	-13.4429
▁plasma	-13.4431
▁enrique	-13.4431
▁bic	-13.4433
▁tiều	-13.4435
aro	-13.4436
shu	-13.4438
cin	-13.4439
ngụt	-13.4439
klopp	-13.444
glass	-13.4441
cám	-13.4441
▁kd	-13.4445
▁206	-13.4448
▁đản	-13.4451
▁xmxt	-13.4452
▁phách	-13.4456
▁bệt	-13.4458
▁6/2011	-13.4459
ẳng	-13.446
vs	-13.4461
▁vinacapital	-13.4461
xóc	-13.4462
7,6	-13.4465
▁siêng	-13.4472
▁325	-13.4472
▁16-10	-13.4473
▁coco	-13.4475
▁chày	-13.4476
▁zi	-13.4477
yon	-13.4477
▁demba	-13.4479
▁what	-13.4482
tem	-13.4484
oto	-13.4484
▁giồng	-13.4486
xêút	-13.4488
thỉu	-13.4488
▁đượm	-13.4491
▁aquino	-13.4492
▁lpg	-13.4493
▁phillip	-13.4494
nấng	-13.4496
tom	-13.4496
▁58%	-13.4499
mont	-13.4501
ement	-13.4501
▁thủa	-13.4502
nắp	-13.4503
ase	-13.4509
bros	-13.451
design	-13.4511
ora	-13.4511
▁pink	-13.4513
▁lead	-13.4518
▁12/2009	-13.4518
▁parkson	-13.452
▁bụ	-13.4522
,40	-13.4526
2,9	-13.4529
,01	-13.4529
▁blake	-13.453
▁future	-13.453
▁icc	-13.4533
▁hugh	-13.4533
▁jesus	-13.4534
rao	-13.4535
michael	-13.4538
▁wal	-13.4541
drive	-13.4541
pellegrini	-13.4546
▁natalie	-13.4549
shield	-13.4549
▁jpy	-13.455
chửng	-13.4551
1,1	-13.4553
diego	-13.4553
▁alberto	-13.4553
bruyne	-13.4558
▁khập	-13.4558
▁191	-13.4559
▁môt	-13.4564
▁cheonan	-13.4567
▁dậm	-13.4567
▁pdf	-13.4568
▁mugabe	-13.457
nis	-13.4572
núc	-13.4572
▁bâng	-13.4576
angel	-13.4576
,21	-13.4578
trôi	-13.4582
tè	-13.4586
▁nhòm	-13.4588
rom	-13.4588
uổng	-13.4589
lặc	-13.4591
byung	-13.4591
▁beeline	-13.4593
▁indian	-13.4594
▁get	-13.4594
▁7/2013	-13.4596
▁ocb	-13.4597
▁24/1	-13.46
jay	-13.4603
▁18/3	-13.4604
ừ	-13.4606
amoled	-13.4609
zone	-13.4611
▁mir	-13.4613
5,000	-13.4613
hựu	-13.4621
,54	-13.4621
▁dm	-13.4622
/9/2014	-13.4623
▁lewis	-13.4623
▁1020	-13.4625
▁mwc	-13.4626
méo	-13.4628
▁lithium	-13.4629
▁tsonga	-13.4629
kul	-13.463
▁458	-13.463
▁hodgson	-13.4632
▁speed	-13.4633
▁xẻng	-13.4634
hotel	-13.4636
chài	-13.4636
spdr	-13.4644
rượi	-13.4647
▁thiennhien	-13.4647
bệ	-13.4648
▁fidel	-13.4648
▁63%	-13.4649
▁diêu	-13.4652
▁siberia	-13.4653
▁col	-13.4653
mồ	-13.4659
▁brand	-13.4661
▁7,9	-13.4661
▁ib	-13.4662
uột	-13.4664
▁nancy	-13.4665
ế	-13.4668
,71	-13.467
abbas	-13.467
hat	-13.4673
▁alzheimer	-13.4674
▁guatemala	-13.4674
seok	-13.4674
8,6	-13.4674
▁580	-13.4674
▁26-3	-13.4675
▁2/2011	-13.4676
zing	-13.4677
trum	-13.4677
▁29/12	-13.4678
radio	-13.4678
network	-13.4678
▁eduardo	-13.4679
roberts	-13.4679
▁ksor	-13.4683
▁mat	-13.4685
▁7-2	-13.4685
xy	-13.4685
9,4	-13.4686
▁goodison	-13.4691
▁thinkpad	-13.4691
▁fitch	-13.4692
ert	-13.4694
▁dancesport	-13.4696
ston	-13.4698
abu	-13.4699
▁jenny	-13.4701
▁27/12	-13.4701
▁táp	-13.4702
obi	-13.4703
▁buồm	-13.4704
2.000	-13.4705
hếch	-13.4707
▁matxcơva	-13.4709
ctcp	-13.471
ave	-13.4718
▁mozilla	-13.4718
ato	-13.4719
▁kwon	-13.472
▁india	-13.472
▁nnvn	-13.4724
▁mozambique	-13.4727
johansson	-13.4728
▁loạng	-13.473
tun	-13.4731
wo	-13.4732
lf	-13.4734
chác	-13.4736
▁idlib	-13.4736
phe	-13.4737
▁7,4	-13.4738
mách	-13.474
giroud	-13.4744
▁bêtông	-13.4744
▁mode	-13.4747
▁2017-2018	-13.4747
▁vdc	-13.4748
▁head	-13.4748
▁dae	-13.4751
/1/2011	-13.4751
▁7-9	-13.4751
▁phablet	-13.4755
lina	-13.4755
▁ghẻ	-13.4755
4,2	-13.4758
▁gianh	-13.4762
▁hulk	-13.4762
,53	-13.4763
hèn	-13.4764
lake	-13.4766
▁nãy	-13.4767
▁bim	-13.4768
eo	-13.477
lla	-13.4771
sneijder	-13.4771
kyu	-13.4772
▁ú	-13.4776
▁universal	-13.4777
vẩn	-13.4779
mit	-13.4781
▁27.000	-13.4781
hathaway	-13.4782
▁rubella	-13.4782
▁et	-13.4782
bĩnh	-13.4783
▁fat	-13.4784
ure	-13.4785
sững	-13.479
watson	-13.479
▁riết	-13.4793
▁ghẹ	-13.4796
▁tntt	-13.4797
õ	-13.4798
ré	-13.4798
▁kay	-13.4798
▁22/1	-13.4798
herrera	-13.4798
▁romelu	-13.48
▁gor	-13.4805
▁xv	-13.4806
lúa	-13.4808
▁tiqui	-13.4809
cb	-13.4809
▁daewoo	-13.4809
,7	-13.481
▁vertu	-13.481
lus	-13.4813
▁light	-13.4814
▁ctđ	-13.4815
10.000	-13.4817
▁jamaica	-13.4818
hĩnh	-13.4818
▁13-7	-13.4818
▁194	-13.4826
state	-13.4827
▁4.6	-13.4827
▁nườm	-13.4828
▁system	-13.4829
▁lem	-13.4832
▁nail	-13.4834
,90	-13.4835
thốt	-13.4835
▁prandelli	-13.4835
vạc	-13.4835
▁3/2010	-13.4835
▁12/2013	-13.4835
▁touchpad	-13.4836
tskh	-13.4838
▁wawrinka	-13.4838
▁marcos	-13.4842
4,6	-13.4842
macron	-13.4844
dream	-13.4846
▁dallas	-13.4846
8,7	-13.4848
▁nhuốm	-13.4848
chenko	-13.4851
7,4	-13.4853
▁den	-13.4854
▁nguời	-13.4855
▁gra	-13.4856
▁martinez	-13.4857
vas	-13.4857
▁gear	-13.4859
gô	-13.4861
▁iris	-13.4863
▁blanc	-13.4865
fin	-13.4867
▁henderson	-13.4869
▁bống	-13.487
▁congo	-13.4871
gãy	-13.4871
▁buk	-13.4872
▁xinhua	-13.4876
▁huntelaar	-13.4876
ược	-13.4879
ferrer	-13.488
▁prime	-13.4881
▁db	-13.4883
▁food	-13.4884
▁1948	-13.4886
ula	-13.4886
▁mandela	-13.4886
▁170.000	-13.4889
▁press	-13.489
▁petrovietnam	-13.4891
90.000	-13.4893
▁299	-13.4896
▁7,6	-13.4898
▁19-4	-13.4899
mèo	-13.4901
nghiêng	-13.4903
rahman	-13.4905
rạ	-13.4905
▁patrice	-13.4909
▁thẫm	-13.491
▁miura	-13.4912
▁1-12	-13.4913
sd	-13.4914
▁2/11	-13.4914
toanh	-13.4917
,88	-13.4918
▁sandro	-13.4923
mode	-13.4926
giễu	-13.4927
▁0-4	-13.4928
▁gigabyte	-13.4928
▁hatchback	-13.4928
▁latvia	-13.4928
▁scb	-13.4928
▁vneconomy	-13.4928
▁evo	-13.4928
▁8.0	-13.4929
▁columbia	-13.493
rick	-13.493
▁craig	-13.4934
xăm	-13.4937
cd	-13.4937
9,6	-13.4938
thaek	-13.494
▁pol	-13.4944
▁6,9	-13.4946
9,8	-13.4948
▁nav	-13.4948
tas	-13.4948
▁28-7	-13.4952
,76	-13.4955
▁margin	-13.4955
▁cut	-13.4958
▁silver	-13.4959
brand	-13.496
▁end	-13.496
soon	-13.4961
▁mohammad	-13.4961
▁217	-13.4962
▁mbc	-13.4962
philippines	-13.4964
▁som	-13.4966
8,3	-13.497
,31	-13.4971
rush	-13.4972
▁8-6	-13.4972
▁kanye	-13.4974
▁erik	-13.4977
▁pad	-13.4978
piero	-13.4981
▁23-9	-13.4983
▁grace	-13.4985
thiền	-13.4986
▁soán	-13.499
,8	-13.4991
▁oman	-13.4992
▁benghazi	-13.4992
▁8-7	-13.4993
▁cộc	-13.4993
▁chửa	-13.4993
cào	-13.4997
▁russell	-13.4997
▁5.9	-13.5
vữa	-13.5001
mirror	-13.501
tte	-13.501
vạng	-13.5011
▁yangon	-13.5011
40.000	-13.5013
▁510	-13.5014
▁kun	-13.5014
▁264	-13.5015
▁23-10	-13.5018
▁4-12	-13.5021
▁10/2011	-13.5022
▁kam	-13.5022
ich	-13.5023
nhào	-13.5024
▁27-7	-13.5024
▁2/2014	-13.5025
5,2	-13.5026
▁279	-13.5026
▁deutsche	-13.5029
▁dúi	-13.503
▁von	-13.5033
▁kawasaki	-13.5039
▁đsct	-13.5039
▁boot	-13.5041
zăng	-13.5042
▁lts	-13.5043
▁poor	-13.5045
ến	-13.5045
đàng	-13.5045
▁ngoạ	-13.5045
sti	-13.5045
hyung	-13.5046
▁ubtư	-13.5046
▁thy	-13.5047
iniesta	-13.5047
▁hua	-13.5048
▁phốt	-13.5049
thêm	-13.5051
nượp	-13.5057
xtrây	-13.5057
mạt	-13.5061
5,9	-13.5063
zor	-13.5065
▁12/2011	-13.5068
▁abdullah	-13.5068
vp	-13.507
lit	-13.507
ngốc	-13.507
eck	-13.5071
▁vl	-13.5072
▁kbnn	-13.5076
vision	-13.5076
▁15-3	-13.5077
▁vsip	-13.5077
gal	-13.5079
0,3	-13.5081
ins	-13.5082
▁50-60	-13.5083
▁tweet	-13.5084
giỡn	-13.5085
▁beck	-13.5088
▁nhoè	-13.5088
lx	-13.5092
▁search	-13.5092
sic	-13.5093
▁oằn	-13.5096
▁.../	-13.5096
▁pharma	-13.5097
-80	-13.5099
▁isaac	-13.5104
vl	-13.5104
phì	-13.5105
france	-13.5107
gẫm	-13.5111
▁nết	-13.5111
verge	-13.5112
ere	-13.5113
biếm	-13.5113
▁confederations	-13.5113
▁olivia	-13.5113
▁javi	-13.5116
rad	-13.5117
▁atalanta	-13.5117
▁2008-2009	-13.5118
▁hói	-13.5119
▁sap	-13.5119
ử	-13.5119
▁12/2	-13.5121
lienvietpostbank	-13.5123
▁xốc	-13.5123
▁edin	-13.5124
dơi	-13.5125
ấy	-13.5129
▁hand	-13.5129
bùn	-13.513
-95	-13.5132
▁chóp	-13.5133
hand	-13.5137
▁edge	-13.514
▁ef	-13.5142
dhabi	-13.5142
▁sense	-13.5143
▁hqc	-13.5145
force	-13.515
▁brics	-13.5152
-36	-13.5152
▁8-8	-13.5152
yen	-13.5153
▁13/2	-13.5154
▁204	-13.5158
▁nhiêù	-13.516
▁interfax	-13.516
▁hattrick	-13.516
▁chạng	-13.5164
3,2	-13.5165
▁cleverley	-13.517
▁die	-13.5174
▁tụng	-13.5174
▁thierry	-13.5174
▁7/3	-13.5175
ob	-13.5179
4,3	-13.5181
kèo	-13.5182
,61	-13.5183
▁qn	-13.5185
▁12/8	-13.5187
▁cassano	-13.519
▁dock	-13.519
ngấn	-13.5192
sor	-13.5192
2,4	-13.5192
quin	-13.5193
▁6/2017	-13.5196
▁vãng	-13.5196
▁mosul	-13.5198
đầm	-13.5198
▁bmp	-13.5199
▁vintage	-13.5201
hách	-13.5202
▁209	-13.5202
mv	-13.5204
▁nhầy	-13.5205
▁ngố	-13.5206
log	-13.5207
▁cựa	-13.5207
.500.000	-13.5207
▁subaru	-13.5207
hôm	-13.5209
▁gọng	-13.5211
▁denis	-13.5218
▁travel	-13.5219
ique	-13.5225
seven	-13.5226
▁playstation	-13.5226
▁xộc	-13.5227
uss	-13.5228
buy	-13.523
▁yi	-13.5231
rea	-13.5232
iff	-13.5232
▁abdel	-13.5232
▁1951	-13.5233
3.000	-13.5235
oăm	-13.5237
▁tuốt	-13.5237
holdings	-13.5238
▁lv	-13.5239
▁joo	-13.524
fs	-13.5242
▁nintendo	-13.5245
▁naomi	-13.5246
xẻo	-13.5247
▁4/2	-13.5248
ạ	-13.5249
ator	-13.5249
-150	-13.525
▁hvg	-13.525
▁jacob	-13.5251
▁7.1	-13.5252
dine	-13.5253
bou	-13.5254
▁vedette	-13.5255
▁trảm	-13.5257
pic	-13.5262
khiễ	-13.5264
▁corolla	-13.5264
▁lukas	-13.5265
nắn	-13.5265
▁bor	-13.5266
,91	-13.5267
▁msi	-13.5269
▁boris	-13.5272
▁4-8	-13.5273
▁shangri	-13.5274
yanukovych	-13.5274
khớp	-13.5274
▁13/11	-13.5275
vơi	-13.528
▁11-3	-13.5281
.900	-13.5282
▁liberia	-13.5283
▁paolo	-13.5284
middleton	-13.5284
2,6	-13.5286
▁tiffany	-13.5287
▁beat	-13.5288
▁ufc	-13.529
▁shock	-13.5291
▁pơ	-13.5292
▁xyri	-13.5295
▁winner	-13.5296
5,3	-13.5299
▁315	-13.5299
▁13-10	-13.5299
▁credit	-13.5302
cus	-13.5306
▁207	-13.5309
rate	-13.5309
sei	-13.5309
▁...?	-13.531
lốc	-13.5311
jc	-13.5312
▁arjen	-13.5312
4,4	-13.5314
.4%	-13.5314
▁franck	-13.5317
▁285	-13.5319
▁rosario	-13.532
▁hernandez	-13.5321
▁puerto	-13.5322
vis	-13.5322
▁hdtv	-13.5323
▁rm	-13.5325
▁hẹ	-13.5328
rid	-13.5332
▁64%	-13.5332
research	-13.5334
,75%	-13.5334
▁gordon	-13.5334
▁today	-13.5337
▁negredo	-13.5337
,56	-13.5338
▁indochina	-13.5341
▁sapphire	-13.5342
▁bradley	-13.5343
▁orange	-13.5348
▁375	-13.5349
▁gangwon	-13.5352
▁guốc	-13.5355
▁0.9	-13.5356
stro	-13.5358
▁dz	-13.5359
▁hans	-13.5359
7,2	-13.536
▁dslr	-13.536
▁vinasun	-13.536
ington	-13.5361
get	-13.5364
mou	-13.5368
▁maldives	-13.537
▁nịnh	-13.537
▁rodriguez	-13.5371
▁66%	-13.5371
depp	-13.5376
▁maduro	-13.5377
cút	-13.5377
▁nằng	-13.538
▁multi	-13.5381
ono	-13.5382
▁30-8	-13.5382
/13	-13.5382
▁klopp	-13.5382
▁khấm	-13.5382
water	-13.5383
rết	-13.5384
3,7	-13.5384
▁rf	-13.5388
đờ	-13.5389
▁mono	-13.5389
som	-13.5391
▁khuân	-13.5391
▁trát	-13.5394
hia	-13.5394
pot	-13.5396
▁smartwatch	-13.5398
4,9	-13.5399
▁mền	-13.5399
▁308	-13.54
▁216	-13.5401
,0%	-13.5401
▁960	-13.5401
▁forlan	-13.5402
▁toulouse	-13.5408
▁gờ	-13.5414
▁rc	-13.5415
▁5.6	-13.5415
▁chồi	-13.5416
▁hon	-13.5419
▁khò	-13.5419
river	-13.5419
▁vef	-13.542
▁14-3	-13.5423
gang	-13.5423
kl	-13.5425
▁vẹo	-13.5426
▁chuyen	-13.5428
▁duma	-13.5429
oải	-13.5433
.850	-13.5436
▁oxlade	-13.5437
erdogan	-13.5438
▁8/2012	-13.5438
▁josh	-13.544
▁68%	-13.5442
▁mueller	-13.5444
▁2/2010	-13.5445
▁qt	-13.5447
▁bướng	-13.5447
▁31-7	-13.5448
▁quằn	-13.5448
trỏ	-13.5448
▁7,7	-13.5449
▁4-4	-13.545
▁2006-2010	-13.545
▁drive	-13.5452
ồng	-13.5457
▁arshavin	-13.5457
▁10-7	-13.5457
▁quick	-13.5458
report	-13.5458
▁shu	-13.546
audio	-13.546
-37	-13.5461
▁mịt	-13.5464
▁lp	-13.5466
▁xập	-13.5467
dzeko	-13.5467
▁6,1	-13.5467
valley	-13.5468
▁herrera	-13.5468
dh	-13.5468
▁ảrập	-13.5468
▁ngát	-13.5469
▁18,5	-13.547
quệ	-13.5475
nung	-13.5476
clip	-13.5478
ross	-13.5479
30.000	-13.548
▁ngỗng	-13.5482
trụi	-13.5482
▁beats	-13.5483
bct	-13.5485
▁buenos	-13.5486
▁watford	-13.5486
kes	-13.5486
▁guinea	-13.5486
▁tho	-13.5487
dả	-13.5488
▁bis	-13.5493
ẹ	-13.5494
▁72%	-13.5495
▁luc	-13.5496
▁robocon	-13.5496
▁mũm	-13.5496
▁26/11	-13.5497
pet	-13.5502
▁5/2010	-13.5504
▁trội	-13.5504
▁ngan	-13.5506
pique	-13.5511
▁sale	-13.5512
▁carles	-13.5512
▁mé	-13.5514
photocopy	-13.5515
▁symantec	-13.5515
▁giắc	-13.5515
.150	-13.5518
▁low	-13.5519
▁kin	-13.552
,5%	-13.5524
▁218	-13.5525
rice	-13.5528
▁control	-13.553
▁5/2012	-13.553
▁9-7	-13.5532
▁1-11	-13.5533
▁pvfc	-13.5534
sak	-13.5534
mĩm	-13.5534
,77	-13.5535
simpson	-13.5536
sandwich	-13.5536
higuain	-13.5536
ốp	-13.5538
▁12,7	-13.5539
inc	-13.5541
▁ghost	-13.5544
▁nicaragua	-13.5544
nasri	-13.5545
▁azarenka	-13.5547
▁2/2013	-13.555
▁11-6	-13.5552
▁zenfone	-13.5553
kẻ	-13.5555
last	-13.5556
▁heart	-13.5556
bee	-13.5556
▁classic	-13.5557
▁lisbon	-13.5561
▁9,7	-13.5563
3,6	-13.5563
code	-13.5564
-45	-13.5564
▁20-8	-13.5565
▁10/2017	-13.5565
▁modem	-13.5568
ries	-13.5569
▁allen	-13.5569
▁8/2013	-13.5569
▁item	-13.5569
▁df	-13.5569
▁22-12	-13.5572
▁gervinho	-13.5573
anderson	-13.5574
▁5-12	-13.5574
miết	-13.5575
▁16-6	-13.5576
sr	-13.5576
▁channel	-13.5581
▁30.4	-13.5582
▁crưm	-13.5583
▁seattle	-13.5583
▁webphunu	-13.5583
8,2	-13.5585
▁sma	-13.5587
▁trừu	-13.5587
▁woo	-13.5588
▁pti	-13.5588
▁ngươi	-13.559
▁torino	-13.5594
petersburg	-13.5595
▁20-5	-13.5595
▁quặn	-13.5602
▁6,7%	-13.5602
▁kaesong	-13.5603
pradesh	-13.5603
▁hamid	-13.5607
,08	-13.5608
thán	-13.5608
▁21-7	-13.561
▁30/12	-13.5612
▁pê	-13.5613
▁3.600	-13.5613
▁2/1	-13.5615
/01/2018	-13.5616
▁color	-13.5618
byt	-13.5619
nhuần	-13.5624
down	-13.5629
thít	-13.5632
tian	-13.5634
ường	-13.5636
▁4/2010	-13.5636
▁196	-13.5639
▁ccn	-13.5639
books	-13.5642
chồn	-13.5642
▁stop	-13.5644
▁hbb	-13.5647
ngả	-13.5647
etta	-13.565
▁accord	-13.565
▁tanzania	-13.5652
today	-13.5653
▁arteta	-13.5654
singapore	-13.5654
▁zte	-13.5654
▁hermes	-13.5655
▁3/2014	-13.5657
2,1	-13.5657
▁tuýt	-13.5663
▁vf	-13.5663
▁thaad	-13.5663
▁10-3	-13.5665
loét	-13.5665
oe	-13.5666
▁trend	-13.567
00,000	-13.5671
▁alexandre	-13.5672
rích	-13.5673
lé	-13.5677
▁sal	-13.5678
000	-13.5678
roi	-13.5679
▁central	-13.5679
▁lèn	-13.5684
▁soo	-13.5685
▁thênh	-13.5686
▁cad	-13.5686
▁hapro	-13.5691
ển	-13.5691
nx	-13.5692
ela	-13.5693
haram	-13.5695
▁vera	-13.5695
▁phết	-13.5696
▁mkhitaryan	-13.5699
6,6%	-13.5699
tip	-13.5699
▁stanford	-13.5702
rol	-13.5703
▁glen	-13.5703
▁cisco	-13.5704
keane	-13.5704
▁sub	-13.5707
▁safari	-13.5707
▁lụi	-13.571
simeone	-13.5714
▁14.9	-13.5717
woman	-13.5718
▁15-1	-13.5718
▁furious	-13.5722
hót	-13.5722
zen	-13.5722
▁cpp	-13.5722
▁hoóc	-13.5724
hiro	-13.5726
▁8,4	-13.5726
▁rinh	-13.5728
báng	-13.5729
▁bru	-13.5729
▁asem	-13.573
▁defoe	-13.5731
▁sab	-13.5732
▁dig	-13.5732
▁19-11	-13.5732
▁fbnv	-13.5732
oz	-13.5732
kiêu	-13.5734
▁vw	-13.5734
▁abbas	-13.5735
▁thớt	-13.5735
sley	-13.5735
mos	-13.5738
▁toại	-13.5739
▁bôn	-13.5739
▁cherry	-13.5739
▁4.8	-13.574
▁17-4	-13.5741
trail	-13.5741
▁ifa	-13.5742
▁bauxite	-13.5742
lady	-13.5743
wilson	-13.5744
▁fedex	-13.5752
▁lùa	-13.5757
quàng	-13.576
market	-13.576
lũi	-13.5761
▁nhạn	-13.5762
▁module	-13.5763
quẫn	-13.5764
ever	-13.5765
pel	-13.5765
tie	-13.5765
▁21-3	-13.5769
▁admm	-13.5772
▁udd	-13.5774
brook	-13.5775
gear	-13.5775
▁3.8	-13.5776
nhô	-13.5776
▁nghé	-13.5777
▁6/2010	-13.5779
▁marcus	-13.5779
▁ferrer	-13.5781
lion	-13.5784
nas	-13.5787
gos	-13.5787
▁1,4%	-13.5793
▁5/2011	-13.5798
▁dep	-13.5801
▁marvel	-13.5802
ribery	-13.5802
▁6-5	-13.5804
phẫn	-13.5804
▁92%	-13.5807
▁water	-13.5808
▁12-1	-13.5808
▁ktnn	-13.5809
▁hdd	-13.5812
▁9-12	-13.5813
▁5.2	-13.5819
▁western	-13.5819
ền	-13.5821
eur	-13.5822
▁11/2011	-13.5823
mendes	-13.5823
7,5%	-13.5823
▁25-3	-13.5823
khơi	-13.5823
rất	-13.5823
ire	-13.5823
chụp	-13.5825
chậu	-13.5828
▁7/2017	-13.5832
▁zurich	-13.5832
lisbon	-13.5834
▁romeo	-13.5835
▁hổng	-13.5835
team	-13.5837
▁sofia	-13.5837
▁8,8	-13.5837
lụng	-13.5838
▁11-12	-13.5844
ech	-13.5844
nhuộm	-13.5844
minzy	-13.5846
▁cf	-13.5848
▁chếch	-13.585
iti	-13.585
▁15.5	-13.5851
▁ol	-13.5854
old	-13.5854
▁16-3	-13.5858
▁anders	-13.5859
▁sec	-13.5862
prince	-13.5862
▁everest	-13.5862
▁siena	-13.5862
rn	-13.5863
bẫ	-13.5863
8.000	-13.5864
california	-13.5865
▁thảng	-13.5868
high	-13.5868
▁xix	-13.587
▁26/1	-13.5871
ậy	-13.5872
centre	-13.5872
▁dôi	-13.5874
▁đsvn	-13.5875
sturridge	-13.5875
rượu	-13.5875
▁hassan	-13.5875
tg	-13.5877
▁túp	-13.5877
weekly	-13.5879
đong	-13.5883
▁17/12	-13.5883
vor	-13.5883
▁nháo	-13.5884
▁nheo	-13.5885
sùng	-13.5886
▁ae	-13.5891
▁26-10	-13.5892
▁chxhcn	-13.5892
vxl	-13.5894
neuer	-13.5895
▁pepsi	-13.5895
look	-13.5895
▁007	-13.5896
6,9	-13.5898
zza	-13.5899
▁cnbc	-13.5901
gẫu	-13.5901
▁md	-13.5903
▁dốt	-13.5905
loáng	-13.5906
quyệt	-13.5907
đống	-13.5908
▁alo	-13.5909
herald	-13.5909
film	-13.591
stock	-13.5911
next	-13.5911
ezzor	-13.5913
▁20-3	-13.5913
▁dhg	-13.5914
▁nc	-13.5918
cic	-13.5923
▁cnrp	-13.5923
duật	-13.5923
▁bluechips	-13.5925
ote	-13.5925
▁caribbean	-13.5927
▁ém	-13.5929
xệ	-13.593
central	-13.5932
meazza	-13.5933
▁wolves	-13.5933
▁sscđ	-13.5933
▁28-3	-13.5933
vạy	-13.5934
▁geforce	-13.5934
bro	-13.5935
▁660	-13.5936
▁4/2017	-13.5936
ròi	-13.5937
độn	-13.594
loẹt	-13.5941
▁yoona	-13.5941
▁dửng	-13.5943
▁10/2009	-13.5945
▁10/2012	-13.5947
▁enzyme	-13.5947
dro	-13.595
▁joel	-13.5952
▁zen	-13.5953
▁vdb	-13.5955
▁10,1	-13.5955
▁chít	-13.5955
▁kyle	-13.5957
bil	-13.5957
▁26-4	-13.5959
bđ	-13.5961
▁azzurri	-13.5963
sat	-13.5964
▁9/2009	-13.5964
▁gl	-13.5964
▁xỉn	-13.5965
▁ashton	-13.5967
ault	-13.5968
rắm	-13.597
ture	-13.597
▁yun	-13.5971
▁valladolid	-13.5971
▁23-2	-13.5971
▁nực	-13.5974
▁đuợc	-13.5974
ppa	-13.5974
ẽ	-13.5976
▁8-11	-13.5979
▁anzhi	-13.5979
ash	-13.5979
▁yes	-13.5983
▁melissa	-13.5984
▁mót	-13.5984
rk	-13.5987
nhọt	-13.599
ree	-13.5991
▁29-9	-13.5993
▁html	-13.5993
das	-13.5993
chips	-13.5994
▁financial	-13.5994
▁warner	-13.5996
▁lucio	-13.5997
▁uể	-13.5999
▁software	-13.5999
▁tar	-13.6004
▁sứa	-13.6004
▁felix	-13.6004
▁kyoto	-13.6005
uế	-13.6006
mueller	-13.6008
muốt	-13.6008
▁24-7	-13.6009
.950	-13.6009
▁1,3%	-13.601
now	-13.6011
▁mbs	-13.6012
uma	-13.6013
phơ	-13.6014
▁hero	-13.6014
type	-13.6014
▁8.5	-13.6015
hắc	-13.6016
▁lủi	-13.6016
▁barbara	-13.6016
tx	-13.6017
fish	-13.6018
toé	-13.6018
20.000	-13.6019
▁khờ	-13.6019
kelly	-13.6019
zhi	-13.6024
êm	-13.6024
▁thoảng	-13.6027
▁9/2010	-13.6027
▁kếch	-13.603
▁ez	-13.603
test	-13.6031
thắt	-13.6031
nhỡ	-13.6032
▁pác	-13.6033
▁mertesacker	-13.6034
ted	-13.6034
▁islamabad	-13.6035
▁abbank	-13.6035
ille	-13.6039
▁1,25	-13.604
bolt	-13.6043
bươu	-13.6045
▁great	-13.6046
rap	-13.6049
4,6%	-13.605
▁lẩm	-13.605
▁joan	-13.6059
▁16-4	-13.6061
▁avi	-13.6061
▁atvslđ	-13.6066
▁unilever	-13.6066
▁glass	-13.607
▁ifc	-13.6072
▁nhằn	-13.6074
▁4/2014	-13.6076
▁3.4	-13.6076
dicaprio	-13.6076
gle	-13.6077
mate	-13.6077
▁30-11	-13.6078
▁rh	-13.6078
▁fsa	-13.608
morsi	-13.608
▁249	-13.6081
▁book	-13.6083
▁1,6%	-13.6087
▁swift	-13.6088
▁15-6	-13.6089
điêu	-13.609
falcao	-13.6091
tỷ	-13.6093
-02	-13.6094
▁nb	-13.6095
▁nỏ	-13.6095
▁khuy	-13.6095
/1999	-13.6096
▁gallon	-13.6096
chartered	-13.6097
▁ethiopia	-13.6097
▁virgin	-13.6098
▁8,2	-13.6101
▁sít	-13.6101
,95	-13.6102
diaz	-13.6103
,79	-13.6104
▁cop	-13.6106
lian	-13.6107
▁tươm	-13.611
▁ngoa	-13.611
kay	-13.6113
▁gợ	-13.6113
chề	-13.6114
▁gấc	-13.6114
mei	-13.6114
▁cheo	-13.6119
▁1.12	-13.6121
england	-13.6121
▁sprint	-13.6121
▁seal	-13.6122
▁32.000	-13.6123
0,8	-13.613
.350	-13.6137
micro	-13.6137
▁xốt	-13.6138
▁đờ	-13.6138
▁violin	-13.614
▁10-4	-13.6142
▁hớp	-13.6143
▁tran	-13.6144
ttlt	-13.6146
▁plaza	-13.615
,45%	-13.615
davis	-13.6153
▁shah	-13.6154
vót	-13.6154
lựu	-13.6155
▁6-9	-13.6157
ock	-13.6159
tể	-13.6162
worth	-13.6162
-64	-13.6162
▁eos	-13.6167
▁tệp	-13.6168
▁22-2	-13.6168
mú	-13.617
▁ellen	-13.6171
motion	-13.6172
▁sgd	-13.6173
email	-13.6173
giọng	-13.6174
▁4.200	-13.6175
▁form	-13.6176
▁mbps	-13.6176
-200	-13.6177
▁deep	-13.6177
manager	-13.618
▁305	-13.6182
▁vis	-13.6182
9,2	-13.6186
▁ahmad	-13.6186
▁magic	-13.6186
review	-13.6187
kal	-13.6188
ffe	-13.6188
▁2.000.000	-13.6189
olo	-13.619
▁aubameyang	-13.619
▁ul	-13.6191
▁7-11	-13.6192
0,7	-13.6193
khedira	-13.6194
▁mcg	-13.6196
sham	-13.6198
tana	-13.62
ridge	-13.6201
▁lắt	-13.6203
▁zabaleta	-13.6203
kị	-13.6204
miêu	-13.6205
▁carla	-13.6208
bach	-13.6209
mia	-13.6209
▁uganda	-13.6211
-34	-13.6212
bùng	-13.6212
brothers	-13.6213
5,1	-13.6215
▁25-9	-13.6218
bol	-13.6218
▁asen	-13.6218
▁24/11	-13.6219
nq	-13.6219
▁15.4	-13.6219
trịch	-13.622
body	-13.622
▁bờm	-13.6221
5,4	-13.6222
▁kei	-13.6223
▁transformers	-13.6223
▁sjs	-13.6223
▁rìu	-13.6225
sx	-13.6227
viêm	-13.6228
woods	-13.6229
aquino	-13.6229
▁27-9	-13.6229
mép	-13.623
nz	-13.623
(	-13.6231
▁brasil	-13.6232
▁625	-13.6234
mhz	-13.6237
▁10/2013	-13.6238
▁10-8	-13.6239
tráo	-13.6239
ami	-13.624
▁490	-13.6242
▁mơn	-13.6242
▁cortex	-13.6243
▁226	-13.6244
▁vút	-13.6246
kennedy	-13.6247
điên	-13.6247
▁11-7	-13.6254
▁20-25	-13.6255
▁topic	-13.6256
▁wan	-13.6257
đần	-13.6257
▁merlo	-13.6259
oóc	-13.6261
▁211	-13.6266
▁4.9	-13.6267
▁25-2	-13.6267
dale	-13.6268
roja	-13.6269
▁cút	-13.627
▁itc	-13.6273
pie	-13.6273
▁nielsen	-13.6274
▁methadone	-13.6274
▁vái	-13.6275
▁zaragoza	-13.6275
▁255	-13.6276
-2003	-13.6278
▁khảm	-13.6278
ware	-13.628
▁charlotte	-13.6285
▁nhổn	-13.6288
▁7.7	-13.6289
ace	-13.6292
wai	-13.6292
▁vừ	-13.6292
▁8/2017	-13.6293
▁minsk	-13.6294
ium	-13.6298
chuộc	-13.63
pus	-13.6302
▁espn	-13.6303
edge	-13.6303
▁vsd	-13.6306
▁keith	-13.6306
-33	-13.6307
pull	-13.6308
lượm	-13.631
lahm	-13.6311
▁chuốt	-13.6313
gù	-13.6317
▁pacific	-13.6319
▁224	-13.6321
▁lybia	-13.6321
▁mid	-13.6322
▁maxim	-13.6322
quại	-13.6322
vẹo	-13.6322
▁isis	-13.6322
▁sierra	-13.6327
▁xéo	-13.6332
ỉm	-13.6333
lâng	-13.6336
▁slavyansk	-13.6338
chầm	-13.6338
▁gdđh	-13.6339
chín	-13.6339
maradona	-13.6342
▁discovery	-13.6344
▁dạn	-13.6344
lak	-13.6348
kk	-13.6349
▁3.300	-13.6352
lèo	-13.6353
nus	-13.6354
2.500	-13.6355
▁15.9	-13.6356
ỏ	-13.636
▁togo	-13.6361
▁nhè	-13.6362
▁lâng	-13.6362
,08%	-13.6365
lima	-13.6366
5,5%	-13.6367
▁17/2	-13.6369
9,6%	-13.637
mào	-13.6373
▁composite	-13.6373
dật	-13.6374
nhé	-13.6374
▁29-7	-13.6375
▁cool	-13.6375
▁8.9	-13.6375
▁fort	-13.638
▁garcia	-13.638
▁vista	-13.6381
▁east	-13.6381
ngời	-13.6384
infonet	-13.6385
▁265	-13.6385
▁lủng	-13.6387
▁qcg	-13.6388
rua	-13.6389
burn	-13.639
▁29-4	-13.6392
▁jesse	-13.6394
▁737	-13.6394
with	-13.6395
royal	-13.6395
donetsk	-13.6395
▁kids	-13.6398
holding	-13.64
▁asha	-13.64
▁fernandinho	-13.6401
▁sat	-13.6401
▁cskv	-13.6401
▁pound	-13.6403
nv	-13.6403
▁rosicky	-13.6405
mut	-13.6405
▁vision	-13.6406
▁antq	-13.6406
sừng	-13.6407
▁house	-13.6408
▁0.8	-13.6411
▁vj	-13.6412
▁zara	-13.6413
luy	-13.6416
▁nuông	-13.6417
0,9	-13.6417
yuki	-13.6417
▁apache	-13.6418
webb	-13.6418
▁28-6	-13.6418
▁vcsc	-13.6423
azi	-13.6425
▁ngục	-13.6426
▁lạp	-13.6433
mid	-13.6434
▁5/2017	-13.6434
▁780	-13.6434
▁excel	-13.6436
▁8-12	-13.6437
illo	-13.644
▁lòi	-13.6445
til	-13.6445
▁3/2017	-13.6445
▁boko	-13.6447
bơ	-13.6449
▁lilo	-13.6451
▁tomahawk	-13.6455
▁mad	-13.6457
kq	-13.6458
zidane	-13.646
▁mandzukic	-13.6463
▁27-4	-13.6464
▁nghênh	-13.6466
▁nar	-13.6469
▁rự	-13.6471
cavani	-13.6471
nóc	-13.6471
sci	-13.6473
ghề	-13.6473
/1998	-13.6474
102	-13.6476
▁620	-13.6479
sip	-13.648
▁73%	-13.6482
▁sunrise	-13.6483
▁mal	-13.6486
▁9/2	-13.6487
▁13-5	-13.6488
▁móp	-13.6488
▁dớp	-13.6488
dom	-13.6492
▁player	-13.6493
ung	-13.6494
▁ever	-13.6494
▁lừ	-13.6494
cook	-13.6495
▁34.000	-13.6498
▁214	-13.6501
▁monster	-13.6501
▁vẹt	-13.6501
▁nòi	-13.6502
▁8.500	-13.6504
▁ttatxh	-13.6508
răm	-13.6509
reus	-13.651
▁only	-13.6511
▁20-9	-13.6516
▁14.5	-13.6517
▁335	-13.6517
nón	-13.6519
▁beverly	-13.6519
▁katherine	-13.6522
▁vó	-13.6523
lỡ	-13.6525
▁hộc	-13.6526
quạnh	-13.6528
▁40-50	-13.6529
▁senegal	-13.653
▁xoong	-13.653
▁malta	-13.6533
disney	-13.6535
bla	-13.6537
▁28-10	-13.6539
▁wwf	-13.6541
hard	-13.6542
pas	-13.6542
-1975	-13.6545
karzai	-13.6546
ảng	-13.6547
-1-2014	-13.655
▁1,7%	-13.655
▁bri	-13.6554
▁200%	-13.6555
zin	-13.6559
fr	-13.6559
▁space	-13.656
▁afrin	-13.6563
gre	-13.6563
▁halle	-13.657
couture	-13.6573
nghê	-13.6574
▁242	-13.6574
▁usaid	-13.6574
9,1	-13.6576
▁258	-13.6579
▁urê	-13.6582
shimbun	-13.6584
▁96%	-13.6584
▁333	-13.6586
▁389	-13.6588
▁ur	-13.6589
▁walt	-13.6589
▁mathieu	-13.6591
chảo	-13.6591
rú	-13.6591
▁hùn	-13.6594
▁almeria	-13.6595
▁huddersfield	-13.6595
▁illinois	-13.6595
▁volvo	-13.6595
▁dy	-13.6596
▁đơm	-13.6598
▁vettel	-13.6599
25.000	-13.6599
iwa	-13.6599
yeong	-13.66
▁essien	-13.6601
▁trướng	-13.6602
▁sociedad	-13.6603
▁8,3	-13.6604
mans	-13.6605
▁dominic	-13.6605
-1945	-13.6606
▁caro	-13.6607
▁lopez	-13.6607
▁dền	-13.6609
col	-13.6609
bèo	-13.6609
slim	-13.661
foods	-13.6611
▁29-5	-13.6614
data	-13.6616
tề	-13.6617
▁25-8	-13.6618
▁khkt	-13.662
▁nghê	-13.6621
▁acoustic	-13.6622
▁hinh	-13.6623
speed	-13.6623
▁robusta	-13.6628
▁mun	-13.6628
▁9,8	-13.6628
thinh	-13.6629
oka	-13.6635
▁font	-13.6638
▁12/2017	-13.6639
village	-13.6639
▁31-10	-13.6641
▁wozniacki	-13.6641
giũa	-13.6641
tics	-13.6641
líp	-13.6642
▁tegra	-13.6646
▁zero	-13.6646
dee	-13.6648
▁mạt	-13.6649
▁hector	-13.6649
▁fer	-13.665
,3	-13.6651
beat	-13.6651
sou	-13.6654
oi	-13.6654
ện	-13.6657
lambert	-13.6657
▁nấp	-13.666
▁59%	-13.666
▁shinee	-13.6661
▁soái	-13.6662
tăn	-13.6663
uz	-13.6664
mori	-13.6665
rod	-13.6666
▁hiroshima	-13.6671
xl	-13.6673
mattis	-13.6675
▁thào	-13.6676
ssa	-13.6676
▁januzaj	-13.6678
▁lđo	-13.6678
▁nhcsxh	-13.6682
▁gates	-13.6687
puyol	-13.6688
▁xỉu	-13.6689
▁stefan	-13.6689
▁đoản	-13.6689
nara	-13.6692
▁milano	-13.6692
tran	-13.6693
▁hannover	-13.6693
▁bell	-13.6694
.050	-13.6701
▁raymond	-13.6702
típ	-13.6703
▁skinny	-13.6704
▁chau	-13.6705
▁libi	-13.6706
ip	-13.6706
▁bêu	-13.6707
▁aeon	-13.6707
▁active	-13.6709
▁beautiful	-13.6712
húc	-13.6712
vidic	-13.6713
vạt	-13.6713
▁9,3	-13.6715
▁đâù	-13.6715
nak	-13.6716
▁csm	-13.6716
▁bild	-13.6719
▁chầm	-13.672
▁chằm	-13.6722
▁fergie	-13.6726
▁hercules	-13.6726
▁tnlđ	-13.6727
▁1600	-13.673
▁moses	-13.6731
dep	-13.6731
vắn	-13.6731
▁colin	-13.6731
▁mach	-13.6732
▁ash	-13.6732
iss	-13.6733
cộp	-13.6736
▁lù	-13.6736
▁12/2010	-13.6737
▁volley	-13.6737
chae	-13.6739
▁esp	-13.674
nhãng	-13.6746
▁bluechip	-13.6746
▁9-9	-13.6746
▁heywood	-13.6748
▁jerry	-13.6748
.450	-13.6748
▁oliu	-13.6749
101	-13.6749
▁yeu	-13.6751
▁lotus	-13.6751
▁pvt	-13.6753
vol	-13.6755
▁cdc	-13.6757
thuấn	-13.6757
đúng	-13.6759
nl	-13.6759
▁penny	-13.676
▁24-5	-13.676
▁mili	-13.6761
▁13,3	-13.6762
▁7.2	-13.6763
▁301	-13.6764
▁đớn	-13.6765
▁nặc	-13.6766
▁70-80	-13.6768
đb	-13.6772
▁msci	-13.6774
▁nhấm	-13.6777
turbo	-13.6777
▁rỗi	-13.6779
▁hart	-13.6781
▁fsb	-13.6781
mexico	-13.6788
▁hỡi	-13.6788
▁cafeland	-13.6788
rì	-13.6794
square	-13.6794
▁hơ	-13.6798
muôn	-13.6799
▁229	-13.6799
trĩu	-13.68
▁masha	-13.6802
▁giậm	-13.6805
head	-13.6807
▁9,4	-13.6807
▁isil	-13.681
vissai	-13.681
▁??	-13.6811
▁6,0	-13.6812
▁glazer	-13.6812
ễn	-13.6815
▁nor	-13.6819
hỉ	-13.6821
▁tor	-13.6822
▁salah	-13.6827
wolf	-13.6828
▁najib	-13.683
llo	-13.6832
lewis	-13.6832
sein	-13.6832
▁tdh	-13.6833
▁nec	-13.6835
dp	-13.6836
riềng	-13.6836
▁87%	-13.6837
▁habubank	-13.6837
▁marouane	-13.6837
▁9,9	-13.6837
frame	-13.6837
▁janet	-13.6838
▁77%	-13.6838
chờn	-13.6841
▁boj	-13.6842
gus	-13.6843
tèo	-13.6845
navas	-13.6846
grande	-13.6846
▁cadillac	-13.6848
pia	-13.6848
ender	-13.6851
ial	-13.6852
adi	-13.6854
slav	-13.6858
tk	-13.6858
▁por	-13.6861
▁koke	-13.6861
kel	-13.6865
▁racing	-13.6865
mọi	-13.6867
đảnh	-13.6867
▁spice	-13.6867
▁9-1	-13.6868
▁15-8	-13.6868
mrcc	-13.6868
▁toefl	-13.687
cell	-13.6871
▁11/2009	-13.6871
▁urani	-13.6871
.7%	-13.6872
vf	-13.6872
▁19,5	-13.6873
▁247	-13.6875
gióng	-13.6876
uyển	-13.6877
▁hê	-13.6878
four	-13.6879
see	-13.6881
▁riêu	-13.6881
taca	-13.6883
east	-13.6884
tter	-13.6886
hei	-13.6886
biden	-13.6889
vista	-13.6891
▁11/2017	-13.6891
wright	-13.6893
▁11/2010	-13.6894
▁730	-13.6895
rp	-13.6895
▁525	-13.6896
uni	-13.6896
-10%	-13.6897
▁22,5	-13.6898
▁sho	-13.6899
thậm	-13.69
lã	-13.6902
▁78%	-13.6904
▁25-5	-13.6905
▁match	-13.6905
zel	-13.6905
óng	-13.6905
trắm	-13.6906
▁bebe	-13.6909
big	-13.6911
▁mia	-13.6911
fel	-13.6911
ors	-13.6913
ide	-13.6913
▁tuc	-13.6914
▁pù	-13.6915
▁oải	-13.6915
▁1,1%	-13.6917
8,1	-13.6921
heart	-13.6924
▁silvio	-13.6925
▁nis	-13.6928
▁gcnqsdđ	-13.6928
▁csđttp	-13.6928
▁ôsin	-13.6931
▁factor	-13.6932
rak	-13.6932
share	-13.6935
kol	-13.6936
▁20-12	-13.6937
▁batman	-13.6938
ett	-13.6938
▁ig	-13.6938
▁after	-13.6946
▁driver	-13.6949
▁montpellier	-13.6949
ppi	-13.6949
▁kathy	-13.695
▁257	-13.695
▁leeds	-13.695
rell	-13.6951
▁violon	-13.6953
▁lx	-13.6953
ata	-13.6956
▁florence	-13.696
▁sevastopol	-13.696
,16%	-13.6963
uf	-13.6967
▁maryland	-13.6972
▁21-8	-13.6973
▁228	-13.6974
▁gun	-13.6979
▁giẻ	-13.6983
▁vfc	-13.6983
▁bal	-13.6984
hin	-13.6985
▁ớn	-13.6986
▁soda	-13.6986
▁gù	-13.6989
jesus	-13.699
mekong	-13.6993
▁giầu	-13.6994
ij	-13.6996
martino	-13.6996
▁vằn	-13.6997
▁mrs	-13.6997
▁lia	-13.6998
chuồn	-13.7
▁18-11	-13.7001
lình	-13.7002
▁bibica	-13.7005
▁corticoid	-13.7005
▁jyj	-13.7005
▁viagra	-13.7005
▁milner	-13.7006
sho	-13.7008
▁10/2010	-13.7009
▁river	-13.701
▁5,3%	-13.7012
▁èo	-13.7013
▁hỉ	-13.7014
▁snow	-13.7016
▁16.4	-13.7018
▁pmi	-13.702
▁31-12	-13.7021
▁1,8%	-13.7023
▁varane	-13.7023
lể	-13.7024
malaysia	-13.7024
▁13-6	-13.7027
▁hms	-13.7027
▁10.10	-13.7028
▁xiao	-13.7028
uff	-13.7029
▁spd	-13.7031
▁mợ	-13.7033
leverkusen	-13.7035
nen	-13.7038
9,5%	-13.7039
▁jyp	-13.7039
▁nhử	-13.7041
▁4,8%	-13.7043
cruiser	-13.7046
khỉ	-13.7048
▁71%	-13.7049
mẫm	-13.7051
▁thược	-13.7051
jpg	-13.7052
▁lụp	-13.7052
▁22-7	-13.7055
▁fun	-13.7058
▁rumani	-13.706
▁234	-13.706
abdul	-13.707
ddy	-13.707
dệt	-13.707
dic	-13.7072
jang	-13.7072
▁chosun	-13.7073
▁shan	-13.7076
▁fra	-13.7079
khiến	-13.7084
▁mod	-13.7088
▁chiellini	-13.7088
rm	-13.709
▁huang	-13.709
▁drc	-13.7091
▁82%	-13.7093
sri	-13.7094
▁7,1	-13.7095
▁bro	-13.7096
fra	-13.7098
▁trạc	-13.7101
roy	-13.7101
▁ranieri	-13.7101
▁3/2009	-13.7101
▁21-12	-13.7102
adam	-13.7102
tive	-13.7103
lou	-13.7106
gap	-13.7108
▁lt	-13.7109
hãy	-13.711
▁analog	-13.711
▁kr	-13.7115
diều	-13.7116
▁leandro	-13.7119
▁livestream	-13.7119
▁running	-13.7119
wal	-13.712
oun	-13.7121
other	-13.7123
▁dó	-13.7124
▁muội	-13.7126
▁20.7	-13.7126
▁thtt	-13.7127
nhố	-13.7127
phìn	-13.7127
▁see	-13.7129
▁sủi	-13.7129
▁step	-13.713
▁homestay	-13.713
▁5.8	-13.7131
▁9.7	-13.7135
▁25-10	-13.7135
▁cyber	-13.7136
▁trư	-13.7136
giường	-13.7139
cahill	-13.7141
shaarawy	-13.7142
▁radamel	-13.7142
▁vancouver	-13.7142
▁20-10	-13.7143
đay	-13.7143
▁304	-13.7146
dos	-13.7146
leon	-13.7147
▁312	-13.7148
ox	-13.7148
kie	-13.7148
▁gaga	-13.7149
▁094	-13.7151
▁12-10	-13.7152
đồi	-13.7153
▁kosovo	-13.7153
vựng	-13.7153
▁ranger	-13.7157
chê	-13.7158
▁campbell	-13.7159
▁302	-13.7159
asean	-13.7159
đủi	-13.7162
screen	-13.7162
▁kylie	-13.7165
▁bold	-13.7166
▁ibrahim	-13.7167
loát	-13.7168
services	-13.7169
cie	-13.717
▁6/2014	-13.717
▁29-11	-13.7172
marin	-13.7174
▁227	-13.7175
▁oprah	-13.7176
▁7.8	-13.7177
▁magiê	-13.7179
tong	-13.7179
rớ	-13.7181
0,6	-13.7183
▁22-5	-13.7183
elizabeth	-13.7185
▁casa	-13.7186
▁ngổ	-13.7186
▁bou	-13.7188
▁sirte	-13.719
▁2,0	-13.7192
sáo	-13.7197
▁duo	-13.7201
▁khàn	-13.7203
▁7/2011	-13.7204
▁od	-13.7204
mara	-13.7205
-05	-13.7207
spi	-13.7207
▁sheikh	-13.7208
▁10.5	-13.7209
▁bremen	-13.721
▁caffeine	-13.7211
▁methanol	-13.7212
▁9-3	-13.7214
adams	-13.7215
▁86%	-13.7216
lạn	-13.7216
kidman	-13.7216
lio	-13.722
▁bhd	-13.7221
mina	-13.7222
3,9	-13.7222
robert	-13.7223
▁eiffel	-13.7223
▁versace	-13.7224
▁karatedo	-13.7224
▁amoled	-13.7225
best	-13.7229
▁17-11	-13.7231
fernandez	-13.7231
valdes	-13.7231
▁satra	-13.7233
▁caracas	-13.7234
▁delta	-13.7235
▁êkíp	-13.7235
▁vuột	-13.7236
▁mayweather	-13.7237
▁đoài	-13.7238
wells	-13.7239
steel	-13.724
tillerson	-13.7243
▁jeffrey	-13.7246
▁csnd	-13.7246
▁ninja	-13.7248
▁otc	-13.7248
▁8,6	-13.7251
.650	-13.7252
campuchia	-13.7254
health	-13.7254
thấm	-13.7256
▁hitachi	-13.7257
▁khđt	-13.7266
bp	-13.7266
hub	-13.7267
▁rợn	-13.7267
feld	-13.727
vc	-13.7271
eni	-13.7272
▁9-4	-13.7272
[...]
